<unk>	0
<s>	0
</s>	0
▁	-3.06211
▁T	-3.10561
_	-3.13538
▁"	-3.3678
"	-3.67322
▁the	-3.68
▁F	-3.89922
ROM	-3.9126
=	-3.99547
1.	-4.07016
▁AS	-4.09831
2.	-4.21377
id	-4.25775
▁of	-4.30563
O	-4.39665
S	-4.45921
ELECT	-4.50181
E	-4.58411
,	-4.59806
▁W	-4.61571
HER	-4.65936
IN	-4.66877
▁J	-4.67607
▁t	-4.6779
▁ON	-4.69025
?	-4.69941
▁B	-4.72895
Y	-4.74691
."	-4.83385
name	-4.86078
2	-4.86869
1	-4.87043
What	-5.04032
▁and	-5.04656
▁are	-5.09994
ECT	-5.18059
(*)	-5.19691
▁count	-5.20579
""	-5.22875
▁""	-5.27171
▁name	-5.2964
SEL	-5.32312
UP	-5.42258
▁in	-5.43557
)	-5.48281
▁ORDER	-5.50927
T	-5.51117
(	-5.51569
▁GR	-5.51977
▁is	-5.53682
LECT	-5.55368
3.	-5.57262
▁names	-5.58571
SE	-5.59883
t	-5.63061
d	-5.71745
'	-5.72513
code	-5.7324
▁LI	-5.74514
s	-5.76497
▁all	-5.77561
▁'	-5.79623
▁with	-5.79866
▁number	-5.81377
ID	-5.82798
▁who	-5.84913
▁have	-5.87758
▁DESC	-5.95306
▁1"	-5.95309
MI	-5.97115
▁>	-6.03901
▁for	-6.0521
Fin	-6.15529
N	-6.17821
many	-6.20046
3	-6.20529
How	-6.26773
▁A	-6.31936
Show	-6.32512
by	-6.32969
CT	-6.35025
▁each	-6.35645
customer	-6.36659
▁th	-6.43872
ND	-6.44336
▁most	-6.49929
Name	-6.50225
▁tha	-6.51722
hat	-6.51987
▁first	-6.54104
type	-6.55441
▁a	-6.59022
▁(	-6.61667
g	-6.63106
▁average	-6.65516
▁D	-6.67277
ich	-6.68807
▁H	-6.69031
▁av	-6.69399
▁has	-6.69471
▁customer	-6.71735
ING	-6.72186
▁customers	-6.72832
▁students	-6.73144
OI	-6.73496
▁order	-6.73627
▁last	-6.76841
D	-6.78266
▁city	-6.79016
AV	-6.79912
;	-6.81265
▁student	-6.82447
at	-6.83296
▁country	-6.84991
ing	-6.87999
▁COUNT	-6.88939
▁product	-6.90343
Lis	-6.90557
IST	-6.91601
▁not	-6.91616
n	-6.93146
▁S	-6.94888
▁department	-6.95961
product	-6.96782
)"	-6.96919
▁more	-6.97266
an	-6.99248
C	-7.02145
▁or	-7.02278
▁products	-7.05695
▁do	-7.07004
▁type	-7.07762
▁total	-7.08919
Wh	-7.10642
ISTI	-7.11911
urn	-7.12271
▁employees	-7.13119
▁<	-7.1504
▁document	-7.1546
date	-7.15663
▁id	-7.159
se	-7.15934
▁ids	-7.16343
▁date	-7.16773
▁max	-7.19077
Ret	-7.20383
ed	-7.20411
▁differen	-7.21482
F	-7.22436
M	-7.23866
▁from	-7.25183
▁to	-7.2532
first	-7.25811
▁wh	-7.25948
▁course	-7.26734
▁people	-7.2833
▁age	-7.28493
ERS	-7.31896
of	-7.32715
▁sum	-7.33555
last	-7.35475
▁INT	-7.38964
▁distinct	-7.4225
▁there	-7.43451
▁least	-7.44076
staff	-7.44502
NOT	-7.44763
▁any	-7.46436
X	-7.468
r	-7.49002
Give	-7.50327
▁Student	-7.50647
city	-7.51481
year	-7.51551
▁code	-7.52286
▁3	-7.53648
EPT	-7.54988
.	-7.55233
▁OR	-7.55569
dept	-7.56547
▁w	-7.56728
▁ASC	-7.57426
▁title	-7.57801
▁year	-7.58021
▁G	-7.5811
ir	-7.58827
address	-7.58829
course	-7.59075
details	-7.59296
""?	-7.60913
▁YEAR	-7.61406
▁at	-7.61605
▁players	-7.61652
ind	-7.6191
▁employee	-7.62005
▁Name	-7.64101
▁salary	-7.64918
▁as	-7.6516
Id	-7.65679
stuid	-7.66566
han	-7.67011
RO	-7.67561
▁IN	-7.69056
▁party	-7.69151
▁min	-7.69501
4.	-7.70958
▁staff	-7.71383
th	-7.7207
title	-7.72143
Count	-7.72155
in	-7.7325
▁song	-7.73255
Code	-7.73403
order	-7.73641
age	-7.74669
club	-7.74675
▁price	-7.7573
ch	-7.76025
student	-7.76168
es	-7.77561
description	-7.78647
▁maximum	-7.80193
▁me	-7.80505
KE	-7.81204
▁on	-7.82965
▁amount	-7.83506
document	-7.83707
▁be	-7.83713
▁player	-7.85001
number	-7.86291
▁bo	-7.87515
▁ordered	-7.8756
▁phone	-7.87803
▁school	-7.88798
▁state	-7.89242
▁artist	-7.90265
▁member	-7.90408
▁countries	-7.90835
▁cities	-7.92304
▁documents	-7.93797
num	-7.95326
▁Customers	-7.9575
▁Documents	-7.95777
▁courses	-7.96941
P	-7.97224
▁10	-7.97754
▁songs	-7.9794
RE	-7.98354
▁film	-7.98955
▁station	-7.9971
ourist	-8.00228
▁2	-8.01275
▁descending	-8.02707
▁company	-8.02829
fname	-8.03748
A	-8.03934
▁role	-8.04219
country	-8.04299
▁club	-8.04366
amount	-8.05401
▁highest	-8.06083
▁one	-8.07318
L	-8.07767
For	-8.08078
▁LOCATION	-8.08738
▁types	-8.10452
▁1	-8.11658
▁dorm	-8.11799
▁payment	-8.12471
HE	-8.12568
▁members	-8.1361
IT	-8.14312
▁county	-8.14313
▁largest	-8.14698
▁dates	-8.14879
driver	-8.14909
en	-8.15403
▁ascending	-8.15443
▁E	-8.15588
▁codes	-8.15826
Whi	-8.16224
4	-8.16355
▁building	-8.16854
▁used	-8.17307
People	-8.17324
▁rank	-8.17431
▁correspond	-8.17733
price	-8.18255
station	-8.18377
custid	-8.18426
Country	-8.19195
project	-8.19238
how	-8.19585
▁accounts	-8.21155
two	-8.21296
▁details	-8.2153
▁list	-8.22219
▁room	-8.223
Airport	-8.22562
artist	-8.24215
▁location	-8.24248
▁address	-8.24369
▁airports	-8.24381
f	-8.24409
department	-8.25382
▁team	-8.25738
▁description	-8.26035
▁100	-8.26546
▁dept	-8.26643
▁minimum	-8.27452
to	-8.27688
player	-8.27735
Type	-8.27788
▁did	-8.2811
▁had	-8.28363
e	-8.28439
lname	-8.28697
Attraction	-8.29196
▁rating	-8.29483
▁tracks	-8.30746
▁template	-8.3081
▁account	-8.31174
▁alphabetical	-8.31798
▁gender	-8.3225
▁job	-8.33056
▁project	-8.33131
W	-8.33273
song	-8.33322
▁grade	-8.3385
StuID	-8.34217
emp	-8.34261
▁they	-8.34304
▁CAR	-8.34492
▁companies	-8.35422
▁races	-8.35591
apt	-8.35775
▁orders	-8.35789
mID	-8.3602
where	-8.36345
▁CLASS	-8.36528
ve	-8.36859
▁5	-8.3694
▁college	-8.37709
ere	-8.38716
Ref	-8.38839
▁airport	-8.39001
▁after	-8.3917
▁departments	-8.39571
▁faculty	-8.39859
st	-8.40227
▁made	-8.40322
▁email	-8.40343
▁TV	-8.40656
▁status	-8.40749
stu	-8.40845
balance	-8.41226
▁an	-8.41234
▁StuID	-8.41254
▁titles	-8.4287
status	-8.43232
▁classroom	-8.4409
▁2000	-8.44684
▁authors	-8.45247
▁addresses	-8.45315
characteristic	-8.45467
dormid	-8.4576
amenity	-8.46019
%""	-8.46043
▁district	-8.46109
▁L	-8.46991
▁ship	-8.47157
color	-8.47231
team	-8.48696
Party	-8.48741
▁some	-8.4923
▁population	-8.49244
▁locations	-8.49491
▁abo	-8.50177
▁Faculty	-8.50294
▁Person	-8.50399
▁checking	-8.50411
▁tryout	-8.51024
full	-8.51309
▁Lis	-8.51452
▁Rating	-8.51572
ist	-8.52041
▁higher	-8.53567
▁teachers	-8.54928
hose	-8.54989
▁drivers	-8.55094
▁zip	-8.55495
▁contain	-8.55894
▁problems	-8.55966
as	-8.56257
company	-8.56496
region	-8.56734
▁TYPE	-8.5714
▁20	-8.57853
%'	-8.58006
count	-8.58097
▁C	-8.58239
▁s	-8.58358
▁projects	-8.5852
▁Movie	-8.58914
▁flights	-8.59399
R	-8.59593
▁Age	-8.59771
▁shop	-8.59799
▁savings	-8.60458
y	-8.60534
p	-8.61274
▁instructor	-8.61291
'?	-8.61543
ION	-8.61593
▁2010	-8.61814
▁capacity	-8.61964
▁region	-8.625
Population	-8.62738
state	-8.62746
▁common	-8.62806
▁STUDENT	-8.63175
▁top	-8.63202
twee	-8.63649
a	-8.63814
salary	-8.6386
▁budget	-8.63871
▁catalog	-8.64298
organisation	-8.64303
campus	-8.64307
▁WINE	-8.64383
▁stadium	-8.64716
▁we	-8.64926
2"	-8.65485
▁rooms	-8.65786
▁movie	-8.66451
▁""%	-8.66506
▁papers	-8.66586
▁numbers	-8.6709
UN	-8.67237
▁election	-8.67448
▁enrollment	-8.67453
paper	-8.67573
▁card	-8.67689
▁years	-8.67703
▁campuses	-8.67814
▁claim	-8.68083
▁policy	-8.68426
▁1000	-8.69156
Date	-8.69553
▁market	-8.69631
▁balance	-8.6967
▁artists	-8.69794
▁store	-8.69982
▁'%	-8.70338
▁singer	-8.70699
▁start	-8.70759
location	-8.71751
branch	-8.72229
▁200	-8.73391
cust	-8.73905
▁hours	-8.74181
▁4	-8.74258
▁before	-8.74356
▁match	-8.7442
▁manufacturers	-8.7451
pet	-8.7459
▁wines	-8.75798
▁less	-8.75967
ther	-8.76326
Price	-8.77035
EN	-8.77167
store	-8.77356
▁score	-8.77406
▁times	-8.7752
Aircraft	-8.77944
▁Staff	-8.78148
items	-8.78181
B	-8.78269
Year	-8.78288
▁greate	-8.78466
▁major	-8.78473
▁matches	-8.78646
rID	-8.78703
▁produce	-8.78933
▁50	-8.79114
▁origin	-8.79948
▁Accounts	-8.79972
template	-8.80836
category	-8.80955
▁invoices	-8.81634
w	-8.8166
Airline	-8.81815
▁director	-8.81924
games	-8.82697
*	-8.82802
▁lowest	-8.82876
▁routes	-8.829
▁countrylanguage	-8.82902
elect	-8.82922
▁stations	-8.83646
▁SEL	-8.84352
▁bank	-8.84353
▁schools	-8.85212
school	-8.85491
▁Country	-8.85716
▁greatest	-8.85936
▁albums	-8.85981
▁sex	-8.86194
apid	-8.86543
cr	-8.86569
▁SE	-8.86649
stars	-8.87409
▁physician	-8.87846
▁no	-8.88308
▁College	-8.88432
WE	-8.88503
▁transaction	-8.88592
auth	-8.88852
G	-8.88945
▁PersonFriend	-8.88982
▁votes	-8.89014
▁Rooms	-8.89069
Who	-8.89087
▁instructors	-8.89398
▁car	-8.89653
rate	-8.89661
▁class	-8.89892
H	-8.89915
▁channel	-8.9011
transaction	-8.90199
party	-8.90263
classroom	-8.90388
its	-8.90524
▁track	-8.9061
▁c	-8.90829
▁ei	-8.91278
▁medicine	-8.91515
▁live	-8.9161
▁results	-8.92393
▁show	-8.92468
▁sort	-8.92697
▁branch	-8.92921
▁semester	-8.93495
▁friends	-8.93725
▁open	-8.94133
▁book	-8.94178
▁position	-8.95062
▁Students	-8.95158
▁languages	-8.95201
▁Highschooler	-8.95485
▁loan	-8.95497
▁Nationality	-8.95653
method	-8.95824
on	-8.9616
▁pilot	-8.96578
▁birth	-8.96745
▁captain	-8.96852
▁trip	-8.96916
▁located	-8.97175
film	-8.97299
rating	-8.97337
aid	-8.97634
▁height	-8.97853
▁30	-8.98094
race	-8.98211
Service	-8.98333
▁FLIGHTS	-8.98898
▁parties	-8.98901
▁every	-8.98909
Enrolment	-8.98942
▁pets	-8.99072
▁Apartments	-8.99165
▁participate	-8.99427
▁play	-8.99559
▁f	-8.99601
▁professor	-9.00338
Unit	-9.00463
i	-9.0048
▁it	-9.00509
but	-9.00516
▁time	-9.00656
▁scientists	-9.00744
▁race	-9.0096
class	-9.01173
attendance	-9.01265
treatment	-9.01293
clubname	-9.01309
season	-9.01359
▁person	-9.01361
CountryCode	-9.01474
friend	-9.01477
Channel	-9.01498
▁female	-9.01638
ever	-9.01846
▁host	-9.02106
orders	-9.02214
▁airlines	-9.02522
▁weight	-9.02616
▁affected	-9.02711
▁founded	-9.02905
▁train	-9.03091
Product	-9.03121
▁)"	-9.03645
start	-9.04147
▁poker	-9.0425
▁teach	-9.04577
▁colleges	-9.04881
▁Addresses	-9.05008
▁descriptions	-9.05044
Course	-9.05071
▁record	-9.05314
County	-9.05354
▁advisor	-9.05395
Make	-9.05429
▁Allergy	-9.0574
▁Project	-9.05971
▁vocals	-9.06214
across	-9.06482
▁institution	-9.06802
service	-9.06862
▁points	-9.07737
▁transactions	-9.07846
ly	-9.0842
▁Team	-9.08468
▁games	-9.08565
▁ships	-9.08615
▁aircraft	-9.08617
▁Product	-9.08718
account	-9.08765
▁candidate	-9.08815
allergy	-9.08862
storm	-9.09038
cName	-9.09265
entry	-9.09585
▁apartment	-9.09607
DATA	-9.0986
nd	-9.10237
▁services	-9.10743
▁buildings	-9.10748
▁movies	-9.10771
▁competition	-9.1115
▁high	-9.11602
3"	-9.1185
▁enrolled	-9.11927
▁credit	-9.11961
▁counties	-9.1235
▁instrument	-9.12352
▁cost	-9.12359
al	-9.12385
▁manager	-9.12551
▁University	-9.12682
phone	-9.12749
claim	-9.12997
degree	-9.13147
▁campus	-9.13184
City	-9.13225
▁star	-9.135
▁played	-9.1378
▁information	-9.13879
▁2009	-9.13896
prof	-9.13966
Song	-9.14035
▁home	-9.14135
▁Products	-9.14239
▁professors	-9.14241
lease	-9.1448
▁liv	-9.14649
model	-9.15295
▁invoice	-9.15343
▁game	-9.15449
▁R	-9.16247
▁storm	-9.16392
▁teacher	-9.17045
building	-9.17121
capacity	-9.17188
Title	-9.17387
▁English	-9.17452
▁opened	-9.17453
▁user	-9.17595
▁Apartment	-9.17793
Language	-9.17997
▁authorship	-9.18007
▁5000	-9.18066
▁resolution	-9.18214
▁can	-9.1833
▁Employees	-9.18502
▁State	-9.18503
o	-9.18702
uid	-9.19276
market	-9.19466
sex	-9.19778
▁belong	-9.1982
▁destination	-9.20128
▁revenue	-9.20178
▁Player	-9.20341
▁dogs	-9.20373
▁headquarters	-9.20394
▁duration	-9.20822
▁problem	-9.20975
hop	-9.21145
▁membership	-9.21215
▁Customer	-9.21215
c	-9.21252
role	-9.21517
▁prices	-9.2155
▁exhibition	-9.21939
owner	-9.21975
out	-9.22067
bandmate	-9.22244
FacID	-9.22269
▁three	-9.22296
Room	-9.22314
▁university	-9.22317
▁gas	-9.22322
▁States	-9.22628
▁mountain	-9.22631
▁available	-9.22641
▁category	-9.22816
▁color	-9.23104
-	-9.23518
up	-9.2365
▁cName	-9.23671
▁detail	-9.24107
eight	-9.24464
employee	-9.2449
▁music	-9.24499
▁area	-9.24556
▁Aircraft	-9.25283
▁Party	-9.25366
room	-9.26058
▁held	-9.26077
with	-9.2608
rs	-9.26131
program	-9.26249
▁submission	-9.26487
reported	-9.26581
▁flight	-9.26582
▁POSITION	-9.26792
orted	-9.26868
▁listed	-9.26983
▁author	-9.27086
▁driver	-9.27261
ies	-9.27516
Address	-9.28211
▁entrepreneur	-9.288
▁program	-9.28904
weather	-9.29088
▁Dogs	-9.29107
▁cartoon	-9.29127
▁procedures	-9.29138
▁b	-9.29258
▁whi	-9.29565
▁singers	-9.29692
▁directed	-9.29833
▁hire	-9.29995
▁Re	-9.30115
▁Employee	-9.30414
VOT	-9.3059
total	-9.30655
▁degrees	-9.30729
track	-9.31238
district	-9.31262
▁ref	-9.31292
budget	-9.3133
Claim	-9.3136
RECORD	-9.31445
▁AIRLINES	-9.31496
▁Templates	-9.31501
▁genre	-9.31594
booking	-9.3167
▁registered	-9.31744
Fi	-9.31768
▁Flight	-9.31948
ART	-9.3199
▁winner	-9.32061
lower	-9.32277
▁value	-9.32425
▁policies	-9.3247
▁clubs	-9.32742
▁result	-9.32829
▁states	-9.32883
re	-9.32956
▁language	-9.33099
')	-9.33214
▁assigned	-9.33397
Author	-9.33481
NAME	-9.33884
inancial	-9.33938
▁size	-9.34019
AC	-9.34086
▁temperature	-9.34192
word	-9.34294
OU	-9.34317
▁distance	-9.35324
long	-9.35379
▁tourist	-9.35389
▁M	-9.35682
etails	-9.36244
▁male	-9.36353
▁wa	-9.36359
member	-9.36369
▁oldest	-9.36432
▁AVG	-9.36434
▁Sportsinfo	-9.36435
NC	-9.36477
▁main	-9.3652
er	-9.3654
hours	-9.36667
▁model	-9.36743
inst	-9.36769
Appelation	-9.36772
▁Projects	-9.36866
professional	-9.36961
Model	-9.3701
▁event	-9.37372
▁films	-9.37728
▁nationality	-9.37839
ive	-9.38362
▁300	-9.3843
▁headquarter	-9.38457
Employee	-9.38502
▁actor	-9.38567
people	-9.3858
▁volume	-9.38674
grade	-9.38978
▁associated	-9.39004
▁Treatments	-9.39028
stadium	-9.39242
county	-9.39308
▁users	-9.39404
locations	-9.39741
▁use	-9.3985
province	-9.40025
▁shops	-9.40481
▁technician	-9.4074
ose	-9.40895
San	-9.41174
types	-9.41231
▁belo	-9.4126
▁Stockings	-9.41628
▁billing	-9.41632
▁older	-9.41635
grant	-9.41807
▁organization	-9.41901
job	-9.41963
Allergy	-9.42024
▁apartments	-9.42066
play	-9.42244
▁n	-9.42405
public	-9.42885
ET	-9.42899
ell	-9.43993
▁events	-9.44095
▁2008	-9.44122
from	-9.4421
safety	-9.44283
▁took	-9.44333
▁complaints	-9.44563
▁hometown	-9.44598
rank	-9.44631
amen	-9.44645
log	-9.44671
Official	-9.449
Staff	-9.44931
English	-9.44939
▁cars	-9.44992
ideo	-9.45041
Customer	-9.45161
▁enroll	-9.45341
▁series	-9.45401
5"	-9.46041
▁8	-9.46065
▁acc	-9.46087
▁Status	-9.46539
ught	-9.466
▁musical	-9.46808
▁Reviewer	-9.47105
▁Francisco	-9.47106
▁files	-9.47382
▁body	-9.4766
▁Courses	-9.47874
Company	-9.48005
enzyme	-9.48031
Types	-9.48072
cards	-9.48176
▁decor	-9.48177
▁letter	-9.48239
transactions	-9.48392
▁dog	-9.48564
▁enzyme	-9.48581
▁personal	-9.48843
▁method	-9.48846
▁patient	-9.49025
▁them	-9.49422
▁18	-9.49497
▁TRANSACTIONS	-9.49964
▁recently	-9.49968
lo	-9.50695
ficial	-9.50737
▁allergy	-9.51078
▁other	-9.51091
USA	-9.51277
registration	-9.51488
▁CV	-9.51515
Points	-9.52859
Performance	-9.52861
▁CHARACTERISTICS	-9.52906
▁among	-9.52916
▁fewe	-9.53034
▁attractions	-9.53034
mount	-9.53119
▁Order	-9.53176
more	-9.53209
▁aircrafts	-9.53406
▁activity	-9.53492
▁Companies	-9.53651
▁claims	-9.53691
▁service	-9.5378
director	-9.5397
▁reviewer	-9.53974
Artist	-9.53989
Smith	-9.54131
problem	-9.54137
author	-9.54323
interaction	-9.54329
act	-9.54478
▁credits	-9.54598
▁review	-9.54729
employeeid	-9.54828
characteristics	-9.55066
▁manufacturer	-9.55222
colors	-9.55292
Order	-9.55382
▁gymnast	-9.55616
History	-9.55889
Bookings	-9.5589
▁youngest	-9.5593
▁roller	-9.55965
▁teaches	-9.56023
▁classes	-9.56035
AK	-9.5605
Vote	-9.56067
ort	-9.56166
▁publication	-9.56274
▁received	-9.56276
▁stock	-9.56327
Red	-9.56362
▁ret	-9.56499
dis	-9.56532
▁Major	-9.56538
outcome	-9.57065
Los	-9.57243
▁rate	-9.57252
Fname	-9.57275
▁treatment	-9.57415
▁phones	-9.57705
In	-9.58017
▁end	-9.58329
dorm	-9.58545
▁elimination	-9.58704
br	-9.58999
game	-9.59044
▁Angeles	-9.59053
▁LANGUAGE	-9.59054
▁Claims	-9.59072
▁AIRPORTS	-9.59075
▁2014	-9.59135
Boo	-9.59144
▁reported	-9.5928
▁ta	-9.59313
▁won	-9.59336
▁wrestlers	-9.59365
▁3000	-9.59426
▁entrepreneurs	-9.5949
▁cinema	-9.59501
▁mountains	-9.5952
SSN	-9.59578
▁ages	-9.59789
▁regions	-9.59969
gender	-9.60316
▁pet	-9.60336
alti	-9.60398
policy	-9.60431
catalog	-9.60435
physician	-9.6051
duration	-9.606
office	-9.60654
Host	-9.6079
purchased	-9.60955
▁active	-9.6112
▁working	-9.61217
is	-9.61359
▁Band	-9.6189
▁wrestler	-9.62006
▁grant	-9.62024
▁broadcast	-9.6228
▁smallest	-9.62318
▁Continent	-9.62449
▁affiliation	-9.62623
▁actors	-9.62696
▁models	-9.62729
ource	-9.63148
▁join	-9.63192
▁Document	-9.63699
score	-9.63955
line	-9.63965
GenreI	-9.64009
▁mean	-9.64064
▁rental	-9.64092
contact	-9.64104
▁organisation	-9.64181
▁Gran	-9.64195
▁Date	-9.64268
mode	-9.646
▁2002	-9.6524
▁Airport	-9.6527
▁contestant	-9.6546
5	-9.65504
▁bigge	-9.65606
▁furniture	-9.65617
▁owner	-9.65663
▁level	-9.65804
▁40	-9.65848
▁share	-9.6589
▁sales	-9.66283
▁family	-9.66287
ship	-9.66796
host	-9.6682
▁10000	-9.67159
no	-9.67171
Age	-9.67335
and	-9.67356
policies	-9.67562
value	-9.67612
series	-9.67652
gpa	-9.67968
orkshop	-9.68068
outcomes	-9.68097
Region	-9.68463
Market	-9.6864
▁recent	-9.69046
▁Industry	-9.69057
▁sub	-9.69065
ion	-9.69123
DNO	-9.69141
▁opening	-9.69244
▁professionals	-9.69275
MENT	-9.69289
▁2004	-9.69329
▁lname	-9.69657
▁taken	-9.6968
▁trips	-9.69701
▁industry	-9.69737
▁positions	-9.69748
▁lives	-9.69816
▁unit	-9.70259
▁file	-9.70989
population	-9.71041
▁attribute	-9.71191
shared	-9.7121
▁P	-9.71454
Location	-9.71509
▁log	-9.71711
chool	-9.72255
▁appointment	-9.72285
▁performance	-9.72307
pri	-9.72394
▁Prix	-9.7262
▁TRACK	-9.72622
▁money	-9.72632
▁involved	-9.72634
New	-9.72636
▁delegates	-9.72693
▁Airlines	-9.72784
▁over	-9.72809
▁90	-9.72847
eid	-9.72873
▁gymnasts	-9.73006
▁volumes	-9.73075
▁technicians	-9.73086
▁directors	-9.73454
▁Studio	-9.73722
Hei	-9.73923
▁office	-9.73973
all	-9.74104
▁publisher	-9.74118
▁dorms	-9.74249
fac	-9.74559
area	-9.74686
Compute	-9.75023
cost	-9.75078
forename	-9.75136
quantity	-9.75206
subject	-9.75218
ted	-9.75222
data	-9.75319
▁smalle	-9.75368
participates	-9.75371
▁concert	-9.75564
alid	-9.75998
▁orchestra	-9.76009
▁climber	-9.76012
▁affiliated	-9.76331
▁under	-9.76374
J	-9.7644
▁base	-9.76455
▁branches	-9.76458
▁trained	-9.76497
cross	-9.76594
▁enr	-9.76652
▁festivals	-9.7666
▁bookings	-9.76683
▁complaint	-9.76772
▁workshop	-9.76775
ex	-9.76921
▁fname	-9.77018
agent	-9.77031
▁Advisor	-9.77084
▁cust	-9.7732
▁make	-9.77653
▁jobs	-9.77683
▁Smith	-9.78461
time	-9.78641
organization	-9.79179
▁COURSE	-9.79206
▁festival	-9.79388
Number	-9.79468
▁booking	-9.79655
▁inst	-9.79727
▁farm	-9.79805
Event	-9.79826
▁museum	-9.79828
register	-9.79952
▁large	-9.80089
Made	-9.80146
▁built	-9.80161
▁basketball	-9.80175
ArtistId	-9.80204
▁assignedto	-9.80223
oftware	-9.80305
▁Friend	-9.80332
destroyed	-9.80348
There	-9.80413
▁devices	-9.80469
usical	-9.80596
▁enzymes	-9.80649
▁Pop	-9.80989
▁templates	-9.81689
ach	-9.8177
▁V	-9.82725
resident	-9.82763
credit	-9.82875
email	-9.8298
▁created	-9.83084
winner	-9.83119
revenue	-9.83263
activity	-9.83283
surname	-9.83304
size	-9.83316
industry	-9.83317
▁hav	-9.83322
genre	-9.83327
level	-9.83333
District	-9.83349
enr	-9.83369
Grape	-9.83375
London	-9.83403
statement	-9.83409
Mountain	-9.83495
dog	-9.83611
Spring	-9.83698
pName	-9.83751
▁conductor	-9.83866
so	-9.83958
▁group	-9.84028
▁RESULT	-9.84143
▁allergies	-9.84177
▁19	-9.84248
escription	-9.84516
▁201	-9.84534
▁pPos	-9.84543
▁Hometown	-9.84574
▁popula	-9.84591
▁organizations	-9.84694
▁injury	-9.84773
▁item	-9.84871
▁25	-9.85122
▁seating	-9.85377
▁City	-9.85407
su	-9.85793
▁600	-9.85927
Le	-9.86185
▁hosts	-9.86403
u	-9.86473
▁attendance	-9.86727
▁stu	-9.86898
▁CUSTOMER	-9.87339
available	-9.87567
Team	-9.87594
speed	-9.87749
addresses	-9.87793
▁postseason	-9.87889
▁visit	-9.87903
▁channels	-9.87916
▁Jose	-9.87955
▁device	-9.88004
▁perpetrator	-9.88016
▁flag	-9.88019
▁MATCH	-9.88309
▁Paragraphs	-9.88309
▁salaries	-9.8831
▁bedType	-9.88331
▁Professionals	-9.8834
▁Jones	-9.88347
▁1980	-9.88357
▁offered	-9.88365
▁stay	-9.88379
▁well	-9.88413
▁Songs	-9.88495
▁gtype	-9.88589
▁days	-9.88616
white	-9.887
▁MO	-9.88844
▁got	-9.88846
▁pilots	-9.89135
▁scores	-9.89318
▁Award	-9.89361
▁500	-9.89408
▁2016	-9.89425
▁balances	-9.8948
▁Open	-9.89965
▁contact	-9.90101
▁2005	-9.90112
▁charge	-9.90171
red	-9.90487
range	-9.90684
▁friend	-9.9069
end	-9.91155
I	-9.9119
▁per	-9.91581
match	-9.92037
resolution	-9.92087
temperature	-9.92106
Player	-9.92128
Hometown	-9.9219
bus	-9.92225
pPos	-9.92227
▁cards	-9.92285
transcript	-9.92296
accelerator	-9.92326
part	-9.92332
▁allergytype	-9.9247
▁expens	-9.92557
estival	-9.92605
ony	-9.92622
profiles	-9.92657
▁published	-9.9266
▁longest	-9.92673
day	-9.92677
▁founder	-9.92702
▁photos	-9.92725
me	-9.92851
▁orchestras	-9.93037
▁DEP	-9.93131
▁journal	-9.93149
Lname	-9.9339
▁old	-9.93592
▁physicians	-9.93615
rime	-9.93705
HS	-9.93718
▁cylinders	-9.93808
▁stadiums	-9.93865
▁items	-9.9391
▁2001	-9.93964
Ge	-9.94018
▁produc	-9.9426
▁released	-9.94332
▁week	-9.94336
▁ratings	-9.94383
▁teams	-9.94462
▁access	-9.94894
▁County	-9.9494
YEAR	-9.96108
supplier	-9.96692
▁investor	-9.96759
No	-9.96761
Continent	-9.96906
▁source	-9.96937
Aberdeen	-9.97027
Fall	-9.97081
wners	-9.97191
ymnast	-9.97197
Tutors	-9.97203
▁ALBUM	-9.97203
▁Certificate	-9.97203
▁Nominee	-9.97203
▁VISITS	-9.97203
▁frequently	-9.97206
▁1990	-9.9721
▁using	-9.97219
heme	-9.97225
▁offer	-9.97284
h	-9.97444
▁work	-9.97461
▁shorte	-9.97832
▁genres	-9.97854
▁degree	-9.97961
▁storms	-9.97982
▁competitions	-9.97986
LIST	-9.98081
▁books	-9.98132
wh	-9.98244
▁chip	-9.98567
▁15	-9.98654
▁album	-9.987
▁Birth	-9.98864
▁-	-9.98923
▁head	-9.99127
▁settlement	-9.99202
▁p	-9.99312
▁middle	-9.99581
low	-9.99748
▁bed	-9.99781
▁stores	-10.0026
Store	-10.0059
▁cell	-10.0115
enrollment	-10.0135
source	-10.0148
ston	-10.0153
weight	-10.0176
exhibition	-10.019
food	-10.0191
Janessa	-10.0196
▁amenities	-10.0196
▁ROLES	-10.0196
▁musician	-10.0197
english	-10.0197
▁York	-10.0197
▁younger	-10.0197
Sawayn	-10.0198
Alice	-10.0201
5.	-10.0201
investor	-10.0206
actor	-10.0207
expenses	-10.0207
▁Headquarters	-10.0209
contents	-10.0209
written	-10.0209
placed	-10.0211
Phone	-10.0218
▁speed	-10.0223
estimation	-10.0224
ameni	-10.0224
▁settlements	-10.0231
pettype	-10.0237
ref	-10.0254
▁editor	-10.0259
▁candidates	-10.028
Dest	-10.0283
Teacher	-10.0338
l	-10.0406
▁screen	-10.042
yes	-10.0441
▁makers	-10.0448
▁don	-10.0499
ER	-10.0526
Department	-10.059
bname	-10.0598
be	-10.0614
lens	-10.0619
card	-10.0645
▁Restaurant	-10.0647
▁12000	-10.066
-211	-10.0666
the	-10.0674
am	-10.0682
restler	-10.0689
inery	-10.069
ubmission	-10.0692
▁Competition	-10.0696
Settled	-10.0696
▁HOTELS	-10.0696
▁Lounge	-10.0696
▁latitude	-10.0696
ULT	-10.0697
campusfee	-10.0697
▁called	-10.0698
Contents	-10.0699
fees	-10.0699
▁web	-10.0699
Statistics	-10.07
▁APPELLATIONS	-10.0704
back	-10.0704
Attributes	-10.0704
position	-10.0712
▁schoolers	-10.0713
contestant	-10.0714
▁Play	-10.0714
inger	-10.0715
Research	-10.0722
Australia	-10.0723
fault	-10.0725
▁playlists	-10.0727
cmi	-10.0729
▁Hall	-10.0734
kin	-10.0738
▁continent	-10.0739
▁climbers	-10.074
Top	-10.0749
▁band	-10.0758
onductor	-10.0759
▁100000	-10.0771
▁stars	-10.0781
share	-10.0782
Li	-10.0782
▁characteristic	-10.0787
▁trains	-10.0791
▁captains	-10.0794
▁left	-10.0851
▁Course	-10.0854
▁section	-10.0874
▁prereq	-10.0903
▁asset	-10.0915
▁journalist	-10.0927
spent	-10.0933
▁Ha	-10.0939
00	-10.0942
TW	-10.0945
▁his	-10.0945
▁2003	-10.0964
▁Lname	-10.0977
▁San	-10.0997
▁take	-10.1001
▁Club	-10.1006
▁fee	-10.1011
▁basePrice	-10.1015
▁al	-10.1021
nter	-10.1026
▁Company	-10.1045
adl	-10.105
ands	-10.1107
▁O	-10.1166
billion	-10.1185
customers	-10.1187
▁vocal	-10.1191
▁bike	-10.1198
▁day	-10.1209
▁supplier	-10.1213
channel	-10.1213
▁percentage	-10.1215
▁Sawayn	-10.1221
▁life	-10.1223
Passengers	-10.1223
▁endowment	-10.1223
Pilot	-10.1223
▁Janessa	-10.1223
▁format	-10.1223
essons	-10.1224
▁performed	-10.1224
▁kind	-10.1225
▁alphabetically	-10.1228
▁laptime	-10.1228
▁studio	-10.1229
▁uni	-10.1229
▁paragraphs	-10.1247
individual	-10.1259
null	-10.1262
str	-10.1266
invoice	-10.1272
played	-10.1273
goalie	-10.1274
Restaurant	-10.1275
high	-10.1279
concert	-10.1279
John	-10.1281
browser	-10.1282
manufacturer	-10.1283
China	-10.1283
▁musicals	-10.1285
▁patients	-10.1286
festival	-10.1287
park	-10.1291
engineer	-10.1292
builder	-10.1303
scientist	-10.1304
▁exhibitions	-10.1306
▁Drama	-10.1308
allergytype	-10.1311
guest	-10.1316
▁Year	-10.1324
▁District	-10.1329
▁elevation	-10.1331
▁Carrier	-10.1332
x	-10.1346
or	-10.1363
dst	-10.138
▁quantity	-10.1383
▁camera	-10.1415
▁inventory	-10.1443
▁support	-10.1459
▁swimmer	-10.146
▁enrollments	-10.1472
▁Investor	-10.1527
lection	-10.1564
▁Wen	-10.1609
▁history	-10.1609
inning	-10.1635
▁theme	-10.1654
▁park	-10.1659
▁browser	-10.1679
ST	-10.1682
▁representative	-10.1746
detail	-10.1757
vision	-10.1771
pisode	-10.1777
Cycle	-10.1778
Earnings	-10.1778
LifeExpectancy	-10.1778
SurfaceArea	-10.1778
▁Citizenship	-10.1778
▁OWNER	-10.1778
▁Settlements	-10.1778
▁cycle	-10.1778
▁repair	-10.1778
▁Catalog	-10.1778
▁carrier	-10.1778
Agents	-10.1779
▁prescribe	-10.1779
Banking	-10.178
▁attended	-10.1782
EMP	-10.1783
▁hotels	-10.1787
▁visited	-10.1788
King	-10.1788
▁give	-10.1806
actID	-10.1807
Groups	-10.1809
▁started	-10.181
▁investors	-10.1821
▁perpetrators	-10.1822
▁groups	-10.1824
oney	-10.1829
▁performances	-10.1829
▁commission	-10.1835
▁Denomination	-10.1835
EmployeeID	-10.1842
DI	-10.1842
Asia	-10.1842
▁statement	-10.1843
pilot	-10.1847
▁once	-10.1849
Biology	-10.1851
Total	-10.1862
structure	-10.1862
que	-10.1868
▁advisors	-10.1881
shipping	-10.1893
coaster	-10.1895
▁medication	-10.1915
ecord	-10.1923
ut	-10.1938
▁passengers	-10.1953
▁wine	-10.1965
0"	-10.1966
▁forename	-10.1968
▁trade	-10.2007
▁login	-10.2019
hipping	-10.2021
▁Rank	-10.2038
▁payments	-10.2038
▁Last	-10.2049
points	-10.208
AT	-10.2084
▁line	-10.2085
▁death	-10.2095
▁playlist	-10.2145
products	-10.2151
▁horsepower	-10.2189
▁Marketing	-10.2191
▁cat	-10.2265
▁John	-10.2298
Group	-10.2335
▁operate	-10.2335
▁part	-10.2339
egree	-10.234
▁HO	-10.2361
▁speak	-10.2367
▁spoken	-10.2367
▁version	-10.2367
ccreditation	-10.2367
▁provided	-10.2372
Programs	-10.2374
male	-10.2375
▁tweets	-10.2377
▁get	-10.2389
▁representatives	-10.2401
▁range	-10.2417
▁pit	-10.2418
▁concerts	-10.2422
▁activities	-10.2425
college	-10.2441
▁rated	-10.2446
▁her	-10.2456
medicine	-10.2465
semester	-10.2468
record	-10.2469
competition	-10.2471
advisor	-10.2472
▁launch	-10.2474
▁records	-10.2475
assigned	-10.248
technician	-10.2483
Status	-10.2483
▁programs	-10.2485
patient	-10.2485
bikes	-10.2493
APG	-10.2502
events	-10.2504
percent	-10.2505
page	-10.253
▁subject	-10.2565
▁visitor	-10.2608
▁Show	-10.2612
▁out	-10.2624
▁People	-10.2626
▁Member	-10.2642
▁formats	-10.2645
yn	-10.2646
ests	-10.2651
▁season	-10.2683
▁Title	-10.2685
ses	-10.2689
documents	-10.2692
co	-10.2732
▁d	-10.2744
▁characteristics	-10.2766
▁professional	-10.2807
gameid	-10.282
Rep	-10.2878
lat	-10.2892
api	-10.2908
▁Room	-10.2931
▁goalie	-10.2934
▁long	-10.2967
▁m	-10.2972
ounded	-10.2989
▁1500	-10.299
osition	-10.2991
rganisations	-10.2991
Support	-10.2992
Editor	-10.2992
Nancy	-10.2992
Platform	-10.2992
Vincent	-10.2992
▁COUNTRIES	-10.2992
▁EMPLOYEE	-10.2992
▁Radio	-10.2992
▁VISITORS	-10.2992
▁nationalities	-10.2992
Football	-10.2992
▁denomination	-10.2992
Columb	-10.2992
Canoeing	-10.2992
fastest	-10.2992
▁1989	-10.2992
▁1850	-10.2992
modern	-10.2993
AlbumI	-10.2999
▁Total	-10.3
▁80	-10.3004
▁transcript	-10.3005
▁earnings	-10.3005
▁appelations	-10.3007
Claimed	-10.3011
Ship	-10.3013
ssn	-10.3015
Accounting	-10.3016
▁sportname	-10.3034
▁editors	-10.3035
4"	-10.3036
Events	-10.3045
▁rates	-10.3069
.'	-10.3069
language	-10.3071
blockcode	-10.3087
▁entry	-10.3089
▁Asia	-10.3093
LE	-10.3094
▁emp	-10.3109
▁111	-10.311
ove	-10.3115
zip	-10.3119
▁followers	-10.3122
rc	-10.3124
birth	-10.3127
Film	-10.3149
system	-10.3151
Cancelled	-10.3157
Canada	-10.3158
summary	-10.3158
ticket	-10.3159
Rock	-10.3164
▁point	-10.3165
UK	-10.3166
▁maker	-10.3168
▁loans	-10.3177
▁depart	-10.3179
▁oppose	-10.3186
ky	-10.3224
any	-10.3229
▁circuit	-10.3256
▁Channel	-10.327
▁outcome	-10.3299
ECTION	-10.331
stop	-10.333
▁First	-10.3362
▁CountryCode	-10.3377
▁Uni	-10.3382
man	-10.3396
▁2011	-10.3404
ring	-10.343
▁ticket	-10.3442
▁include	-10.3442
ig	-10.3453
Weight	-10.3469
▁engineer	-10.3534
ation	-10.3551
claimed	-10.3556
ilk	-10.3594
Professor	-10.3614
▁mill	-10.3625
▁debate	-10.3626
▁airline	-10.3626
Bo	-10.3629
client	-10.3658
▁Cartoon	-10.3658
▁citizenship	-10.3658
▁expectancy	-10.3658
▁requested	-10.3658
▁described	-10.3658
irculation	-10.3659
Full	-10.3661
Rylan	-10.3665
▁regional	-10.3667
▁accelerator	-10.3672
▁nations	-10.3676
▁builders	-10.3677
▁nominated	-10.3689
ecretary	-10.3699
▁tonnage	-10.3701
▁conductors	-10.3713
▁publishers	-10.3721
le	-10.3724
ter	-10.3737
list	-10.3738
▁Number	-10.374
▁treatments	-10.3741
▁reviews	-10.3742
▁belongs	-10.3763
▁media	-10.3794
▁banks	-10.3798
Member	-10.3804
faculty	-10.3807
one	-10.3816
▁done	-10.3823
Manufacturer	-10.3826
"")	-10.3827
▁markets	-10.3842
Book	-10.385
opened	-10.3851
distance	-10.3853
K	-10.3859
post	-10.3859
held	-10.386
▁themes	-10.3861
teacher	-10.3861
per	-10.3863
horsepower	-10.3865
history	-10.3866
Representative	-10.3866
categories	-10.3867
result	-10.3867
decision	-10.3868
Museum	-10.387
Linda	-10.387
Kyle	-10.3872
languages	-10.3873
playlist	-10.3877
Marketing	-10.3882
channels	-10.3906
▁All	-10.392
gradepoint	-10.3939
▁individuals	-10.3965
Building	-10.3982
mp	-10.405
▁0	-10.4108
he	-10.4185
shop	-10.4198
▁scientist	-10.4226
EL	-10.4249
▁Appelation	-10.426
▁ex	-10.4275
ton	-10.4301
0	-10.4327
▁Australia	-10.4335
▁research	-10.4346
▁earn	-10.4365
notification	-10.4373
Requested	-10.4373
blockfloor	-10.4373
uantity	-10.4373
▁Likes	-10.4373
▁together	-10.4373
▁nominee	-10.4373
▁GENRE	-10.4373
GRAPE	-10.4373
ailway	-10.4373
cumin	-10.4373
sesame	-10.4374
▁exist	-10.4379
Grade	-10.4379
Color	-10.4385
▁often	-10.4385
President	-10.439
▁grapes	-10.4393
▁participants	-10.4393
▁sports	-10.4394
NUM	-10.4395
Attendance	-10.4396
Buildings	-10.44
CCT	-10.441
Email	-10.4413
▁journalists	-10.4421
▁Polic	-10.4422
▁GovernmentForm	-10.4443
ommittee	-10.4448
▁FDA	-10.4461
eservations	-10.448
▁London	-10.4508
evice	-10.4543
▁paragraph	-10.4558
▁battle	-10.4558
▁tv	-10.4558
form	-10.456
oth	-10.4563
▁data	-10.4573
▁latest	-10.4581
▁report	-10.4581
College	-10.4601
membership	-10.4617
train	-10.4622
working	-10.4626
▁church	-10.4626
compatible	-10.4633
active	-10.4635
▁advise	-10.4643
U	-10.4649
▁6000	-10.4682
▁architect	-10.4709
▁Visits	-10.472
accident	-10.4724
▁Ph	-10.4739
▁Paper	-10.4788
▁text	-10.4791
▁Payment	-10.4792
▁owne	-10.4865
Pro	-10.4892
▁MIN	-10.4905
▁v	-10.4913
▁Manufacturer	-10.4962
ROL	-10.5008
▁release	-10.5013
▁shipping	-10.5025
▁150	-10.5077
amous	-10.5089
▁prerequisite	-10.5108
▁minister	-10.5108
▁railway	-10.511
Week	-10.5116
mobile	-10.5142
▁equal	-10.5142
Graphics	-10.5142
▁acceptance	-10.5142
▁cloud	-10.5142
▁gross	-10.5143
Fail	-10.5143
▁earliest	-10.5143
buying	-10.5143
▁bought	-10.5151
▁TIME	-10.5164
▁mission	-10.5165
▁4000	-10.5172
▁railways	-10.5175
▁paper	-10.5177
▁mu	-10.518
RIST	-10.5182
▁premises	-10.5188
USD	-10.5191
mid	-10.5209
ate	-10.5229
▁owners	-10.5234
▁8000	-10.5235
V	-10.525
▁submissions	-10.5257
chain	-10.5268
Mar	-10.5273
▁managers	-10.5278
▁Grape	-10.5295
▁medicines	-10.5309
Fast	-10.5311
us	-10.5312
▁typical	-10.532
▁paid	-10.5333
▁length	-10.5341
Is	-10.5353
▁test	-10.5368
lot	-10.5375
▁23	-10.541
TH	-10.5427
Republic	-10.5436
Payment	-10.5436
candidate	-10.5442
headers	-10.5446
Ho	-10.5448
height	-10.5449
Artwork	-10.5451
personal	-10.5452
Ph	-10.5453
attribute	-10.5459
basePrice	-10.5461
Hardware	-10.5463
Club	-10.5472
▁Region	-10.5472
Sales	-10.5478
machine	-10.5479
▁outcomes	-10.548
Con	-10.5482
Time	-10.5483
tracks	-10.5485
TV	-10.5486
"".	-10.5491
▁own	-10.5496
fall	-10.55
▁Payments	-10.5503
Ben	-10.5507
arrange	-10.5529
deaths	-10.5533
▁breed	-10.5549
cat	-10.555
degrees	-10.5568
com	-10.5597
Fault	-10.5597
▁stop	-10.5598
▁sections	-10.5599
exa	-10.5612
▁amounts	-10.5666
uthorised	-10.5687
Res	-10.5694
AS	-10.5704
▁32	-10.5708
▁system	-10.5764
▁form	-10.5765
▁Alto	-10.5778
Wal	-10.5822
On	-10.5824
CA	-10.583
09	-10.5837
▁h	-10.5863
▁fault	-10.589
mple	-10.5892
▁9410	-10.592
▁arriv	-10.592
▁cmi	-10.5923
▁wedding	-10.5939
▁artwork	-10.5942
estroyed	-10.5943
Day	-10.5956
hipped	-10.5956
▁universit	-10.5969
▁facult	-10.5969
▁Alice	-10.5969
ethod	-10.5972
▁Shark	-10.5975
▁Cameron	-10.5975
▁Harris	-10.5975
▁industries	-10.5975
Delegate	-10.5975
Instructor	-10.5975
Michael	-10.5975
Psychology	-10.5975
Spanish	-10.5975
Spices	-10.5975
▁Activity	-10.5975
▁Category	-10.5975
▁EVENTS	-10.5975
▁Guests	-10.5975
Defender	-10.5975
▁Airways	-10.5975
▁View	-10.5975
▁Coast	-10.5975
▁1999	-10.5975
Diana	-10.5976
▁1996	-10.5976
▁GDP	-10.5976
▁happened	-10.5976
bal	-10.5976
▁studying	-10.5976
David	-10.5977
Robin	-10.5978
▁final	-10.5979
estruction	-10.5979
▁Invoices	-10.598
Enrollment	-10.5981
Town	-10.5981
▁likes	-10.5985
▁Credits	-10.5989
▁accessed	-10.5989
▁Transcripts	-10.5991
edication	-10.5992
▁place	-10.5992
oeing	-10.5996
White	-10.6001
▁reviewed	-10.6006
▁artworks	-10.6008
▁relat	-10.6009
▁shipments	-10.6009
▁draft	-10.6013
▁label	-10.6019
BAL	-10.602
▁training	-10.6021
▁statuses	-10.6026
▁10000000	-10.6027
-211'	-10.6029
▁undergo	-10.6056
headquartered	-10.6057
▁i	-10.6067
▁nurse	-10.6092
▁50000	-10.6092
Pen	-10.6102
▁saving	-10.6105
▁shipment	-10.611
▁database	-10.6147
▁Finance	-10.6148
▁vehicle	-10.6148
▁Life	-10.6153
▁85	-10.6155
▁venue	-10.6159
▁majors	-10.6179
▁hand	-10.6184
led	-10.6192
ervices	-10.6201
▁ranking	-10.6212
k	-10.6213
et	-10.6218
▁IDs	-10.6223
▁assessment	-10.6247
son	-10.6273
▁attraction	-10.6277
▁1?	-10.6283
▁gname	-10.632
Pass	-10.632
Scores	-10.6322
Assignment	-10.6328
▁Africa	-10.633
skill	-10.6331
ana	-10.6338
institution	-10.6343
female	-10.6343
nationality	-10.6355
American	-10.6359
loss	-10.6367
rental	-10.6368
Investor	-10.637
Document	-10.6371
Paper	-10.6375
▁International	-10.6376
text	-10.6377
▁suppliers	-10.639
Participant	-10.6396
▁cover	-10.6399
hire	-10.6403
enni	-10.6414
▁purchase	-10.6436
TER	-10.6457
rama	-10.6496
olve	-10.6508
▁mID	-10.6533
4""	-10.6559
▁sing	-10.6565
theme	-10.6568
▁Wall	-10.6584
▁Linda	-10.6599
ie	-10.6632
▁eid	-10.6657
▁2015	-10.6718
▁individual	-10.673
▁200000	-10.6737
▁bikes	-10.6744
el	-10.6751
▁restaurant	-10.6843
▁evaluation	-10.6846
▁nickname	-10.685
humidity	-10.6884
▁Kingdom	-10.6884
▁Systems	-10.6884
▁happy	-10.6884
▁useracct	-10.6884
became	-10.6884
▁GPA	-10.6884
▁conferred	-10.6885
▁hiring	-10.6885
Herbs	-10.6886
▁interact	-10.6891
▁food	-10.6895
il	-10.6896
maintenance	-10.6898
native	-10.6904
▁pettype	-10.6913
enator	-10.6916
▁lessons	-10.692
▁120	-10.692
assignments	-10.6924
▁operated	-10.6935
▁bus	-10.6942
▁60	-10.695
▁Robe	-10.6965
▁EN	-10.6969
ross	-10.6975
▁Assets	-10.698
reports	-10.6991
winning	-10.7019
▁born	-10.7023
▁I	-10.7037
bo	-10.7041
▁Spring	-10.7058
▁tourney	-10.7072
▁platforms	-10.708
coupon	-10.7088
▁elections	-10.7136
ow	-10.7143
▁catalogs	-10.7152
▁budgets	-10.7158
force	-10.7168
Jet	-10.7176
▁gpa	-10.7182
aintenance	-10.7184
▁manage	-10.7202
▁Ro	-10.7206
star	-10.7212
cities	-10.7228
▁brand	-10.7233
▁lesson	-10.7244
▁milliseconds	-10.728
king	-10.7286
CV	-10.7297
book	-10.7303
eachers	-10.7308
master	-10.7324
event	-10.733
acc	-10.7331
▁interaction	-10.7339
manager	-10.7343
aircraft	-10.7347
First	-10.7357
processing	-10.7358
access	-10.7359
support	-10.7362
outstanding	-10.7365
publisher	-10.7365
middle	-10.7366
Japan	-10.737
breed	-10.7372
Carole	-10.7374
swimmer	-10.7374
journalist	-10.7375
settlement	-10.7375
singer	-10.7379
architect	-10.7379
committee	-10.7384
asset	-10.7385
head	-10.7387
feature	-10.7387
measure	-10.7389
marketing	-10.7396
sections	-10.7401
scholarship	-10.7406
▁structure	-10.7406
Last	-10.7417
served	-10.7432
▁serve	-10.7449
Score	-10.7449
▁this	-10.7527
▁cross	-10.7569
▁decision	-10.7572
▁UK	-10.7607
▁yes	-10.765
elivery	-10.7661
mean	-10.7673
Of	-10.7695
budgeted	-10.7714
▁block	-10.7731
▁ever	-10.7775
ours	-10.7815
▁attend	-10.7817
▁190	-10.784
Card	-10.7843
uppliers	-10.7848
▁bridge	-10.785
▁mailshot	-10.785
assignment	-10.785
▁surface	-10.7879
▁polic	-10.7881
illiseconds	-10.7881
urniture	-10.7882
▁alphabetic	-10.7883
Regular	-10.7884
▁GRADECONVERSION	-10.7884
▁PRODUCTS	-10.7884
▁Publisher	-10.7884
▁longitude	-10.7884
Indiana	-10.7884
Provisional	-10.7884
ContId	-10.7884
▁1998	-10.7884
▁twice	-10.7884
▁poll	-10.7884
ility	-10.7885
Close	-10.7885
▁Statements	-10.7885
▁primary	-10.7887
Template	-10.7888
▁reach	-10.7888
pct	-10.7889
UnitPrice	-10.789
▁expenses	-10.7892
▁Participants	-10.7898
▁amenity	-10.7899
orld	-10.79
▁winery	-10.79
▁coasters	-10.7906
▁guests	-10.7906
▁fl	-10.7907
▁nomination	-10.7912
Bos	-10.7913
▁Aberdeen	-10.7924
▁LEVEL	-10.7926
▁rankings	-10.7926
▁protein	-10.7926
▁Song	-10.7927
oki	-10.793
▁debates	-10.7935
▁engineers	-10.7941
▁assets	-10.7953
▁INVOICES	-10.7958
▁180	-10.797
servations	-10.7976
▁invested	-10.798
dew	-10.7985
▁offices	-10.7988
Features	-10.8002
ity	-10.8007
▁pages	-10.8011
▁go	-10.8035
▁Cylinders	-10.8036
Area	-10.8038
ehavior	-10.806
augh	-10.8066
▁accelerate	-10.809
▁K	-10.8099
olicies	-10.8118
SECT	-10.8119
▁Fname	-10.812
▁stage	-10.8125
Game	-10.8143
▁floors	-10.8165
our	-10.8166
nrolment	-10.8167
▁Days	-10.82
Cat	-10.821
Blu	-10.8213
▁FacID	-10.823
▁monthly	-10.8259
▁6	-10.826
▁160	-10.8268
▁forms	-10.8273
Parts	-10.8275
Jer	-10.8279
IS	-10.8298
▁detention	-10.8314
▁incident	-10.8322
▁9	-10.8327
payment	-10.8342
West	-10.8354
UM	-10.836
FA	-10.8361
▁property	-10.8373
▁committee	-10.8381
feet	-10.8385
▁scholarship	-10.8392
cell	-10.8407
▁Carole	-10.8427
000	-10.8443
irected	-10.845
inhibitor	-10.8458
AHD	-10.8465
Rank	-10.8471
contract	-10.8472
screen	-10.8476
International	-10.8477
property	-10.8478
▁Location	-10.8482
visitor	-10.8483
PU	-10.8486
ard	-10.8486
incident	-10.8487
booked	-10.8489
rants	-10.849
NYC	-10.8497
makers	-10.8498
Visits	-10.8499
▁Store	-10.8506
ad	-10.8509
charge	-10.8539
Num	-10.8559
▁compatible	-10.8596
▁Kyle	-10.8642
▁categories	-10.865
TIN	-10.866
als	-10.8671
udio	-10.8672
▁Book	-10.8684
▁Rock	-10.869
▁page	-10.8708
op	-10.8758
▁China	-10.8866
▁mid	-10.8876
▁sport	-10.8891
▁""19	-10.8906
▁900	-10.8913
abou	-10.8949
Feature	-10.8961
▁grape	-10.8963
MiB	-10.8995
SALE	-10.8996
PUR	-10.9
Log	-10.9001
trust	-10.9003
▁participant	-10.9008
ough	-10.9008
▁bedrooms	-10.901
▁fly	-10.9013
▁worked	-10.9014
▁residents	-10.9015
▁minutes	-10.9026
▁schooler	-10.9027
Tournament	-10.9033
Math	-10.9039
miles	-10.904
caused	-10.9045
▁architects	-10.905
▁vote	-10.9058
mpg	-10.9059
▁visitors	-10.9061
▁che	-10.9067
60	-10.9086
▁Info	-10.9098
▁prominence	-10.9103
▁Director	-10.9107
▁constructors	-10.9121
▁As	-10.9163
▁donator	-10.9165
▁beds	-10.9185
▁hired	-10.9186
▁Pa	-10.9219
▁lens	-10.9237
▁surname	-10.9242
▁rent	-10.9249
aken	-10.928
for	-10.9281
▁ME	-10.9304
▁starts	-10.933
▁ID	-10.9353
▁overall	-10.9355
cience	-10.9376
▁lap	-10.939
ations	-10.9397
▁award	-10.9419
eport	-10.9443
▁Di	-10.9452
▁didn	-10.9455
0?	-10.9471
▁Europe	-10.9475
▁80000	-10.951
▁Num	-10.9514
▁notes	-10.9535
▁booked	-10.9592
ended	-10.96
▁coach	-10.963
aking	-10.9636
Master	-10.9652
cover	-10.9661
movie	-10.9665
▁machine	-10.967
person	-10.9675
approved	-10.9679
are	-10.968
University	-10.9683
James	-10.9687
section	-10.9692
tarting	-10.9697
week	-10.9699
Addresses	-10.9703
letter	-10.9706
PROF	-10.9707
functional	-10.9711
Ashley	-10.9712
Brazil	-10.9713
enroll	-10.9713
State	-10.9714
Latte	-10.9715
circuit	-10.972
Orchestra	-10.972
Bob	-10.972
▁new	-10.972
calendar	-10.9721
seating	-10.9722
inventory	-10.9722
Bernhard	-10.9724
Kayaking	-10.9724
Austin	-10.9725
Africa	-10.9726
task	-10.9726
Edwards	-10.9726
milliseconds	-10.9726
detention	-10.9726
Europe	-10.9728
walk	-10.9728
prereq	-10.9728
▁Famous	-10.973
complet	-10.9732
North	-10.9732
formats	-10.9733
NEB	-10.9738
album	-10.974
loser	-10.9742
lesson	-10.9743
BK	-10.9745
award	-10.9745
ill	-10.9746
trade	-10.9748
Ball	-10.9749
millions	-10.9752
attraction	-10.9752
Famous	-10.9753
▁Airline	-10.9761
Tonnage	-10.9763
login	-10.9763
other	-10.9768
▁Artist	-10.9769
Payments	-10.9775
individuals	-10.9799
credits	-10.9807
ning	-10.9812
lap	-10.9813
ay	-10.9816
hosts	-10.9834
suppliers	-10.9854
ley	-10.9885
stage	-10.989
NG	-10.9892
erem	-10.9917
ler	-10.9929
▁percent	-10.9932
▁Film	-10.9936
▁SU	-10.9944
East	-10.9959
▁reference	-10.9998
ts	-11.0007
ign	-11.0008
nis	-11.0014
deo	-11.0025
stores	-11.0027
Co	-11.0031
m	-11.0127
The	-11.0144
▁INVOICE	-11.0152
▁STA	-11.0156
able	-11.0157
▁Motor	-11.021
▁government	-11.021
firm	-11.0212
million	-11.0212
Engineer	-11.0212
▁appelation	-11.0213
Goo	-11.0214
ent	-11.0223
bbreviation	-11.0228
▁check	-11.0236
anne	-11.0238
▁quali	-11.0243
gle	-11.0243
▁frequent	-11.0244
ournal	-11.0245
340-300	-11.0245
Initial	-11.0245
Meaghan	-11.0245
yellow	-11.0245
▁Gallery	-11.0245
▁Heaney	-11.0245
▁appear	-11.0245
▁morning	-11.0245
-12-25	-11.0245
1989-09-03	-11.0245
Aruba	-11.0245
Chicago	-11.0245
Database	-11.0245
Horses	-11.0245
Incident	-11.0245
Morning	-11.0245
Physics	-11.0245
Private	-11.0245
Psychiatry	-11.0245
Subway	-11.0245
Surgery	-11.0245
Universal	-11.0245
Volume	-11.0245
maxOccupancy	-11.0245
voluptatem	-11.0245
▁'1989-0	-11.0245
▁BOOKINGS	-11.0245
▁CONTINENTS	-11.0245
▁Championships	-11.0245
▁Destiny	-11.0245
▁Gatwick	-11.0245
▁INVESTORS	-11.0245
▁Sections	-11.0245
▁conducted	-11.0245
▁package	-11.0245
▁schedule	-11.0245
Giuliano	-11.0245
Sonoma	-11.0245
chervil	-11.0245
▁AssignedTo	-11.0245
Place	-11.0245
fication	-11.0245
▁Range	-11.0245
flax	-11.0245
Atlanta	-11.0245
▁kids	-11.0245
▁occurred	-11.0245
▁departure	-11.0245
▁management	-11.0245
DVD	-11.0246
▁Crew	-11.0246
Billion	-11.0246
Donor	-11.0246
Spain	-11.0246
▁841	-11.0246
▁copies	-11.0246
hori	-11.0246
manufacte	-11.0246
▁Casey	-11.0247
ults	-11.0247
▁follows	-11.0247
Percentage	-11.0248
OTHA	-11.0248
ALA	-11.0248
piad	-11.0249
statistics	-11.0249
▁destruction	-11.025
▁1950	-11.0251
Astrid	-11.0251
Mona	-11.0252
▁46	-11.0252
▁actual	-11.0253
Mari	-11.0254
▁3500	-11.0255
▁hall	-11.0255
▁Hill	-11.0256
Accelerate	-11.0257
Smithson	-11.0257
▁abbreviation	-11.0262
▁require	-11.0262
emale	-11.0268
AlbumID	-11.0268
international	-11.0268
Democratic	-11.027
-261	-11.0274
▁certificates	-11.0274
cred	-11.0275
Good	-11.0277
▁18000	-11.0278
GNP	-11.0279
eputy	-11.028
authorder	-11.0286
▁committees	-11.0289
▁1961	-11.0292
MAN	-11.0292
▁nurses	-11.0297
▁availab	-11.0299
▁20000	-11.0303
▁2006	-11.0311
▁5000000	-11.0319
ference	-11.032
tourist	-11.0326
▁swimmers	-11.033
▁parks	-11.0332
▁Channels	-11.0333
▁continents	-11.0333
▁""199	-11.0333
▁Tasks	-11.0335
ling	-11.0342
▁works	-11.0342
▁heads	-11.035
Rate	-11.0351
hot	-11.0353
▁Elimination	-11.0366
org	-11.0373
reasurer	-11.0376
Draft	-11.0382
▁Li	-11.0388
▁cinemas	-11.0388
▁joined	-11.0395
valid	-11.0399
ical	-11.0408
omptroller	-11.042
een	-11.0429
▁300000	-11.0435
▁costs	-11.0451
▁memberships	-11.0459
wins	-11.0462
▁Headquarter	-11.0466
▁institutions	-11.0491
▁desc	-11.05
Re	-11.0502
OR	-11.0507
▁Governor	-11.0509
pring	-11.0512
eno	-11.0512
▁heights	-11.0514
stages	-11.0514
Der	-11.0534
crea	-11.0594
▁lines	-11.0595
▁minute	-11.0605
▁RAM	-11.0641
▁content	-11.0655
ess	-11.0656
▁5?	-11.0664
▁""8	-11.0664
Orange	-11.0668
▁Centr	-11.0671
▁di	-11.0674
▁low	-11.0675
▁NY	-11.0675
▁Ki	-11.0708
▁Chinese	-11.0723
▁800	-11.0736
▁In	-11.0738
ACTIONS	-11.0744
VOTE	-11.0756
CTION	-11.076
▁1995	-11.0775
▁NEB	-11.0786
▁walk	-11.0791
00"	-11.0791
▁Edwards	-11.0793
▁Austin	-11.0795
▁Kayaking	-11.0795
▁Bernhard	-11.0795
ardware	-11.0852
Genre	-11.0891
insti	-11.0913
▁James	-11.0942
ending	-11.095
od	-11.0976
mon	-11.0984
▁USA	-11.099
▁BK	-11.1011
▁Department	-11.1013
▁American	-11.102
articipates	-11.1024
it	-11.1035
foot	-11.1072
▁Sales	-11.1074
report	-11.1083
France	-11.1107
make	-11.1117
Bill	-11.1123
Russia	-11.1126
coach	-11.1127
Tokyo	-11.1142
Birth	-11.1146
▁50?	-11.1146
camera	-11.1147
Check	-11.1147
Chinese	-11.115
brand	-11.1151
monthly	-11.1152
church	-11.1157
Credit	-11.1169
An	-11.117
alo	-11.1205
ACC	-11.1209
Dan	-11.121
ifferent	-11.1227
▁l	-11.1227
Medi	-11.1231
▁2012	-11.1265
standing	-11.1272
▁301	-11.1274
tracking	-11.1291
departmentID	-11.1292
▁Model	-11.1303
Cath	-11.1312
pt	-11.1341
▁exce	-11.1347
rick	-11.1377
Uni	-11.138
▁builder	-11.1409
▁come	-11.142
▁lot	-11.1432
TA	-11.1498
ppro	-11.1534
eeks	-11.1535
▁task	-11.1542
▁estimation	-11.1546
thing	-11.1609
▁Sci	-11.1615
show	-11.1631
▁image	-11.164
▁certificate	-11.164
mong	-11.1651
▁earning	-11.166
limi	-11.167
06	-11.1672
-03-1	-11.1674
Audience	-11.1674
▁Vehicles	-11.1674
▁altitude	-11.1674
▁settled	-11.1674
snatch	-11.1674
bangla	-11.1674
▁audience	-11.1674
visibility	-11.1674
▁eliminated	-11.1674
▁round	-11.1674
▁run	-11.1675
▁Spielberg	-11.1675
▁profits	-11.1675
Notes	-11.1676
▁churches	-11.1685
Male	-11.1686
▁tutors	-11.1687
▁reservations	-11.1689
▁parking	-11.1702
▁tables	-11.1708
eferences	-11.1711
Engineers	-11.1712
Lucas	-11.1715
▁machines	-11.1721
▁mailshots	-11.1723
managing	-11.173
▁Heathrow	-11.1732
▁advises	-11.1736
▁ministers	-11.1739
▁prerequisites	-11.1739
Night	-11.1744
▁table	-11.1746
CVO	-11.1753
▁accelerators	-11.1759
sing	-11.1759
▁lat	-11.176
▁15000	-11.1762
▁ranges	-11.1768
▁browsers	-11.1774
US	-11.178
▁town	-11.1796
▁farms	-11.1807
▁Venue	-11.1812
▁addressed	-11.1845
eir	-11.186
▁methods	-11.1882
orporat	-11.1892
▁Third	-11.1894
cra	-11.1917
▁route	-11.192
▁Mountain	-11.1921
stin	-11.1937
▁Al	-11.1957
▁LOCATIONS	-11.1965
▁med	-11.1965
6	-11.1969
▁side	-11.2001
Matter	-11.2002
▁thr	-11.2027
▁small	-11.2042
▁lived	-11.2052
▁California	-11.2063
Votes	-11.2066
ublication	-11.2071
ative	-11.2078
TR	-11.2086
▁bathroom	-11.2099
bad	-11.2108
▁mode	-11.2126
▁animal	-11.2143
▁damage	-11.2143
▁LA	-11.2163
▁tryouts	-11.2175
▁US	-11.2176
▁MA	-11.2199
ash	-11.2204
authorised	-11.2228
▁loser	-11.2253
▁Eliminat	-11.2308
land	-11.2318
▁12	-11.2379
Ad	-11.2413
NY	-11.2424
▁Host	-11.2429
ame	-11.2457
▁feature	-11.2472
▁de	-11.2494
▁fi	-11.2525
▁Dan	-11.2531
▁mp	-11.2538
Su	-11.2559
used	-11.2608
▁air	-11.2624
z	-11.2638
▁ROY	-11.2647
▁cr	-11.2664
Art	-11.2685
um	-11.2689
test	-11.2693
wo	-11.2694
HA	-11.2698
▁140	-11.2707
Visit	-11.2725
content	-11.2736
point	-11.275
Americano	-11.2753
Cash	-11.2753
researcher	-11.277
mountain	-11.2773
Flight	-11.2779
join	-11.2784
Deliver	-11.2787
maker	-11.2788
Centr	-11.2789
decor	-11.2795
Studio	-11.2796
Mark	-11.2797
passengers	-11.2806
Turcotte	-11.2806
directed	-11.2806
Midshipman	-11.2807
Lamberton	-11.2807
Honolulu	-11.2808
Steven	-11.2808
Orton	-11.2811
Clara	-11.2811
animal	-11.2814
CCTV	-11.2814
oppose	-11.2814
damage	-11.2814
left	-11.2814
medication	-11.2814
overall	-11.2816
battle	-11.2818
▁Offic	-11.282
bathroom	-11.2821
assessment	-11.2821
bedroom	-11.2822
paragraph	-11.2823
RAM	-11.2826
minute	-11.2826
Movies	-11.283
chip	-11.2836
30	-11.2837
dollars	-11.2838
unit	-11.284
port	-11.2846
latest	-11.2853
forms	-11.2855
shops	-11.2865
Days	-11.2882
VI	-11.2895
Award	-11.2919
apita	-11.293
med	-11.293
vice	-11.2933
ong	-11.2943
Public	-11.2948
Ka	-11.297
ang	-11.3013
rmati	-11.3022
Sony	-11.3022
services	-11.3067
Tur	-11.309
rns	-11.3091
Work	-11.3131
Brit	-11.3154
venues	-11.3222
nt	-11.3222
-800	-11.3236
▁prof	-11.3244
▁weigh	-11.3247
est	-11.327
ubjects	-11.3277
vide	-11.3283
Budget	-11.3285
evel	-11.3289
▁issue	-11.3299
▁governor	-11.3305
eason	-11.3306
▁Transcript	-11.3308
▁delegate	-11.3308
▁floor	-11.3309
▁complete	-11.3311
▁meter	-11.3316
stimate	-11.3324
▁supplie	-11.3331
ip	-11.3336
efinitions	-11.3337
Express	-11.3341
Iceland	-11.3341
Primary	-11.3341
▁football	-11.3341
Facilities	-11.3341
Glenn	-11.3341
Injured	-11.3341
Millions	-11.3341
Mobile	-11.3341
activitor	-11.3341
porphyri	-11.3341
▁Kertzmann	-11.3341
▁Nationals	-11.3341
▁Occupation	-11.3341
▁PHOTOS	-11.3341
▁processed	-11.3341
Medhurst	-11.3341
velocity	-11.3341
▁employment	-11.3341
▁multipl	-11.3341
▁reverse	-11.3341
▁entries	-11.3341
Village	-11.3341
▁residence	-11.3341
▁special	-11.3341
▁horses	-11.3341
▁Instruments	-11.3341
▁Fosse	-11.3341
▁street	-11.3341
ilver	-11.3341
Brandon	-11.3341
▁reign	-11.3341
▁postal	-11.3342
kb	-11.3343
▁comptroller	-11.3343
▁March	-11.3343
▁episode	-11.3344
▁weekly	-11.3344
Roles	-11.3345
▁republic	-11.3345
oyal	-11.3345
▁measurement	-11.3345
▁arrival	-11.3345
Speed	-11.3346
▁four	-11.3346
▁accidents	-11.3348
▁hold	-11.3349
footed	-11.3349
atient	-11.3349
▁coaches	-11.335
selling	-11.335
▁worth	-11.3354
▁Policy	-11.3357
dob	-11.3358
▁ha	-11.336
▁Albums	-11.3361
ington	-11.3362
▁placed	-11.3363
revision	-11.3365
▁ab	-11.3366
Friendly	-11.3368
▁36	-11.3368
mma	-11.3368
mph	-11.3379
▁Park	-11.3385
▁reserv	-11.3386
Attribute	-11.3387
▁estimations	-11.3392
▁Score	-11.3395
▁awards	-11.3396
ssessment	-11.3396
▁Skills	-11.3409
▁bulgarian	-11.3409
▁labels	-11.3413
▁climb	-11.3419
▁faults	-11.3421
▁birthday	-11.3421
▁battles	-11.3426
ebate	-11.3428
codes	-11.3434
Client	-11.344
-800""	-11.3446
lists	-11.3448
▁""4	-11.3455
▁lots	-11.3491
▁visits	-11.3494
▁museums	-11.3501
▁Lewis	-11.3504
▁Builder	-11.3505
▁Issue	-11.3505
▁Anthony	-11.3506
▁Detention	-11.3506
▁permanent	-11.3506
▁parts	-11.3507
▁injured	-11.3507
▁Germany	-11.3508
▁2018	-11.3511
▁appointments	-11.3514
▁Vi	-11.3523
▁liked	-11.3527
▁minor	-11.353
v	-11.3533
Things	-11.355
CLE	-11.3558
ransit	-11.3561
b	-11.3562
▁Ben	-11.3576
▁distances	-11.3601
▁you	-11.3607
▁Flights	-11.361
▁Time	-11.3635
esult	-11.3638
▁revenues	-11.3649
▁durations	-11.365
▁current	-11.3697
references	-11.3701
ster	-11.3703
▁facility	-11.3704
▁Lieutenant	-11.3706
▁French	-11.3714
▁shows	-11.3729
▁produces	-11.3749
iang	-11.3756
▁dur	-11.3761
Music	-11.3775
▁Dutch	-11.3801
apes	-11.3806
▁leader	-11.3813
▁30000	-11.3845
sent	-11.3868
dep	-11.3879
FL	-11.3887
clu	-11.3889
▁CCTV	-11.3898
▁dollars	-11.3899
▁Clara	-11.39
▁Orton	-11.39
▁Honolulu	-11.3903
▁Lamberton	-11.3904
▁Midshipman	-11.3904
▁Turcotte	-11.3905
60""	-11.3906
Ro	-11.3909
▁Mark	-11.3915
▁Sony	-11.3932
▁bu	-11.3942
riter	-11.3946
▁leav	-11.395
tha	-11.3955
▁1121	-11.3961
▁Jul	-11.3963
rep	-11.3969
ows	-11.4031
▁tweet	-11.4032
Gam	-11.4033
rescribe	-11.4036
ra	-11.405
▁complet	-11.4063
▁Art	-11.4075
▁North	-11.4094
▁calendar	-11.4102
▁pr	-11.4103
▁Orchestra	-11.4104
▁Bob	-11.4142
08	-11.4154
av	-11.4223
▁longe	-11.4244
▁public	-11.4272
▁0.	-11.4274
come	-11.4278
cip	-11.4301
▁master	-11.4388
▁dis	-11.4393
employe	-11.4394
ons	-11.4395
▁Ka	-11.4414
▁Air	-11.4429
ormat	-11.4434
ries	-11.4446
ho	-11.4451
each	-11.4453
▁Movies	-11.4457
▁g	-11.4471
llowed	-11.45
▁35	-11.4506
▁yearid	-11.4508
▁skill	-11.4524
Transactions	-11.4528
con	-11.4545
▁colors	-11.4583
▁prefer	-11.4648
▁ne	-11.4653
▁u	-11.4664
IL	-11.4667
formed	-11.4682
▁participat	-11.4706
19	-11.4718
open	-11.4723
Ward	-11.4726
old	-11.4727
ur	-11.4735
founded	-11.474
▁""2010-	-11.4753
commander	-11.4758
ta	-11.4767
Companies	-11.4772
4560596484842	-11.4775
Beijing	-11.4775
Colorado	-11.4775
Christop	-11.4775
Denmark	-11.4776
Brown	-11.4777
Bosco	-11.4778
Kim	-11.4779
cinema	-11.4782
operating	-11.479
▁Canada	-11.479
stock	-11.479
cylinders	-11.4791
Hartford	-11.4798
Texas	-11.48
ee	-11.4803
California	-11.4805
Dutch	-11.4805
length	-11.4808
Locations	-11.4808
vehicle	-11.481
floors	-11.4812
good	-11.4816
PPT	-11.4818
2016	-11.482
hour	-11.4822
photo	-11.4829
Rob	-11.4846
TRA	-11.4847
▁coaster	-11.4859
▁Lo	-11.4877
▁And	-11.4909
▁guest	-11.4923
tax	-11.4929
▁constructor	-11.4957
lost	-11.4988
handle	-11.5003
short	-11.502
He	-11.503
ditional	-11.5031
eader	-11.5045
TRAC	-11.5047
TIONS	-11.5075
▁Dest	-11.5083
CTIONS	-11.5096
ma	-11.5165
ible	-11.519
math	-11.5205
8-06-26	-11.5238
Best	-11.5251
lack	-11.5278
SU	-11.5293
dollar	-11.5306
▁receive	-11.5308
▁quantit	-11.5334
DE	-11.5339
▁Bangla	-11.5341
▁frequency	-11.5341
▁occupation	-11.5341
target	-11.5341
▁attendees	-11.5341
Patent	-11.5341
▁Residents	-11.5341
▁performer	-11.5342
▁stories	-11.5343
▁wifi	-11.5343
▁tournament	-11.5344
▁night	-11.5347
▁client	-11.535
aug	-11.535
▁approv	-11.5353
▁characters	-11.5356
▁121	-11.5356
▁short	-11.5368
▁spend	-11.5369
▁expense	-11.5373
▁contents	-11.5378
Rain	-11.5382
▁contacted	-11.5383
▁UID	-11.5387
▁33	-11.5387
▁bathrooms	-11.5393
▁losers	-11.5394
▁governments	-11.5399
ily	-11.5401
▁case	-11.5407
allest	-11.5412
▁donor	-11.5413
moved	-11.5414
▁bridges	-11.5414
Tax	-11.5415
▁nicknames	-11.5422
▁Pennsylvania	-11.5423
ce	-11.5433
▁interactions	-11.5439
Wor	-11.5447
▁mills	-11.5454
▁production	-11.5454
OUR	-11.5457
▁transcripts	-11.5476
acti	-11.5477
wide	-11.5481
▁premise	-11.5503
▁journals	-11.5525
▁con	-11.5541
▁unsure	-11.5541
▁LOTS	-11.5541
▁Georgia	-11.5543
▁consider	-11.5544
▁computer	-11.5545
tu	-11.555
▁authorize	-11.5572
▁logs	-11.5588
▁eliminations	-11.559
▁images	-11.5591
▁stocks	-11.5598
To	-11.5604
acID	-11.561
▁Bos	-11.5621
▁net	-11.5639
,000	-11.5649
▁local	-11.565
▁Class	-11.5652
▁Kentucky	-11.5667
▁sizes	-11.5675
ODE	-11.5694
mate	-11.5705
02	-11.5709
▁hotel	-11.573
▁lost	-11.5811
Join	-11.5813
▁198	-11.5813
▁hour	-11.5831
▁photo	-11.5844
▁good	-11.5854
sh	-11.5854
00?	-11.588
▁Brit	-11.5886
▁Hartford	-11.5914
▁Texas	-11.5916
▁force	-11.5918
ivers	-11.5931
Ford	-11.5938
qu	-11.5947
EmployeeI	-11.5962
▁tax	-11.5969
.5	-11.597
▁30.	-11.5993
emory	-11.5996
▁Bo	-11.5998
rie	-11.5999
▁cre	-11.6
names	-11.6004
tanding	-11.6009
read	-11.6032
▁Steven	-11.6042
▁ratio	-11.6061
lue	-11.6061
▁Credit	-11.6078
ding	-11.6088
▁drive	-11.6134
▁populations	-11.6142
rmed	-11.6151
▁Check	-11.6152
▁Tokyo	-11.616
▁researcher	-11.6169
▁decr	-11.6169
Arm	-11.622
2015"	-11.624
rem	-11.6279
▁millions	-11.628
iti	-11.6301
▁""600""	-11.6328
rms	-11.6352
▁Go	-11.6362
ance	-11.6406
Open	-11.65
ight	-11.6509
▁outstanding	-11.6532
option	-11.6537
max	-11.6588
rdware	-11.6636
und	-11.6731
mail	-11.6754
▁)	-11.676
▁?	-11.677
Jul	-11.6834
▁Part	-11.6883
▁Music	-11.6886
ound	-11.691
99	-11.6911
1995"	-11.6913
OM	-11.6949
▁whe	-11.6978
Works	-11.6993
50	-11.7004
road	-11.7007
sol	-11.7027
80000"	-11.7063
eq	-11.7077
CLASS	-11.7078
▁Res	-11.7083
arrive	-11.7085
lu	-11.7088
om	-11.7102
made	-11.7107
▁post	-11.7116
item	-11.7123
instrument	-11.7131
doctor	-11.7139
ph	-11.7142
Rating	-11.7144
▁Cancelled	-11.7144
TYPE	-11.7161
ine	-11.7164
major	-11.7169
less	-11.7169
▁o	-11.7172
ON	-11.7192
file	-11.7194
leader	-11.7194
ale	-11.7218
Mortgages	-11.7228
Progr	-11.723
Feb	-11.7243
German	-11.7248
90	-11.7255
body	-11.7257
loan	-11.7258
Major	-11.7261
Florida	-11.7266
typical	-11.7267
family	-11.7267
Advisor	-11.7268
air	-11.7269
killed	-11.727
Italy	-11.727
journal	-11.7272
Jazz	-11.7272
ResType	-11.7276
complaint	-11.7278
created	-11.728
sales	-11.7281
Afghanistan	-11.7281
Life	-11.7282
Bangladesh	-11.7282
council	-11.7282
officers	-11.7282
Bachelor	-11.7283
workshop	-11.7283
pressure	-11.7283
Homenick	-11.7283
Lacrosse	-11.7284
Goodwin	-11.7284
Mary	-11.7284
Mancini	-11.7284
Gruber	-11.7285
bonus	-11.7286
MOYER	-11.7286
striker	-11.7287
▁Un	-11.7287
Carrier	-11.7288
Duke	-11.7288
Utah	-11.7288
MPEG	-11.7288
raised	-11.7288
constructorid	-11.7288
Manager	-11.7289
elevation	-11.7289
Ebba	-11.7289
UCLA	-11.7289
Elsa	-11.729
CHI	-11.729
HKG	-11.729
followers	-11.7291
tories	-11.7293
Pop	-11.7294
volvo	-11.7296
facility	-11.7297
Lieutenant	-11.7298
Opera	-11.7298
French	-11.7298
platforms	-11.7299
Governor	-11.73
database	-11.73
editor	-11.7302
tourney	-11.7302
Pending	-11.7303
media	-11.7304
current	-11.7305
accelerate	-11.7307
desc	-11.7308
▁staffs	-11.7313
hold	-11.7314
shipment	-11.7314
Finance	-11.7316
Headquarter	-11.7319
Stuid	-11.7321
hotel	-11.7321
notes	-11.7334
lead	-11.7337
Comp	-11.734
route	-11.7342
call	-11.7349
purchase	-11.7359
saving	-11.7364
nurse	-11.7383
25"	-11.7388
Br	-11.7402
mous	-11.7411
ranking	-11.742
Stud	-11.7443
▁resident	-11.7447
Tai	-11.745
hou	-11.7462
enrollments	-11.7482
if	-11.7483
done	-11.749
fl	-11.749
LA	-11.7492
eas	-11.7495
Sport	-11.7519
Air	-11.7521
fame	-11.7538
2005	-11.7547
▁pi	-11.7565
ENT	-11.758
emon	-11.7581
paid	-11.7587
ol	-11.7645
tours	-11.7648
▁null	-11.7649
▁vot	-11.7651
Courses	-11.7656
nsurance	-11.7672
ake	-11.7674
TAR	-11.7684
areas	-11.7698
rack	-11.7711
sessment	-11.7714
ask	-11.7719
depart	-11.7721
econd	-11.7726
▁like	-11.7772
release	-11.7779
-08-2	-11.7782
eaths	-11.7794
▁90000	-11.78
-220	-11.7806
sea	-11.7806
Program	-11.7809
emester	-11.7809
Thing	-11.7809
uration	-11.7809
▁520	-11.7811
▁14	-11.7814
rip	-11.7817
ial	-11.7817
ology	-11.7818
ffiliation	-11.7819
ctual	-11.7824
xpenses	-11.7828
▁found	-11.7831
zz	-11.7832
▁primar	-11.7834
Percent	-11.7836
hysician	-11.7836
efore	-11.7837
amily	-11.7837
▁400	-11.7837
olic	-11.7838
▁young	-11.7839
Gym	-11.7839
haracter	-11.7839
field	-11.784
Cancel	-11.784
49	-11.784
apital	-11.784
Green	-11.784
Government	-11.784
RODUCT	-11.784
senior	-11.784
▁Annual	-11.784
Dummy	-11.7841
Functional	-11.7841
Mike	-11.7841
Orbit	-11.7841
Scanner	-11.7841
aspect	-11.7841
▁Vietti	-11.7841
▁defiance	-11.7841
Belgium	-11.7841
Gorgoroth	-11.7841
Indonesia	-11.7841
catnip	-11.7841
▁NULL	-11.7841
▁Programming	-11.7841
▁Widenius	-11.7841
▁abandoned	-11.7841
▁truck	-11.7841
00166582	-11.7841
5-01-01	-11.7841
Aaron	-11.7841
Amisulpride	-11.7841
Anguilla	-11.7841
Aniyah	-11.7841
Arizona	-11.7841
Atsushi	-11.7841
Avatar	-11.7841
Blanche	-11.7841
CHRISSY	-11.7841
CONRAD	-11.7841
EVELINA	-11.7841
Eduardo	-11.7841
ExxonMobil	-11.7841
Gleasonmouth	-11.7841
Graph	-11.7841
Graztevski	-11.7841
Guruvayur	-11.7841
Hawaii	-11.7841
Heffington	-11.7841
Horsepower	-11.7841
Jeremy	-11.7841
KAWA	-11.7841
Katsuhiro	-11.7841
LOCK	-11.7841
LORIA	-11.7841
Lacey	-11.7841
Louisville	-11.7841
Lysanne	-11.7841
MADLOCK	-11.7841
MARROTTE	-11.7841
Malaysia	-11.7841
Marcelle	-11.7841
Matthias	-11.7841
McEwen	-11.7841
Mergenthaler	-11.7841
Miramichi	-11.7841
Monterey	-11.7841
ONDERSMA	-11.7841
Presentation	-11.7841
Punk	-11.7841
Reggae	-11.7841
SELBIG	-11.7841
Shanghai	-11.7841
Soisalon	-11.7841
Stephanie	-11.7841
TARRING	-11.7841
Vivian	-11.7841
closure	-11.7841
franchise	-11.7841
infandel	-11.7841
laurel	-11.7841
precipitation	-11.7841
urrency	-11.7841
xercise	-11.7841
▁242518965	-11.7841
▁94002	-11.7841
▁Beetle	-11.7841
▁Chelsea	-11.7841
▁Crescent	-11.7841
▁Derricks	-11.7841
▁Domingo	-11.7841
▁Dorian	-11.7841
▁Goldner	-11.7841
▁Jackson	-11.7841
▁Julianaside	-11.7841
▁Knolls	-11.7841
▁Martinez	-11.7841
▁Meeting	-11.7841
▁Meyer	-11.7841
▁POLLOCK	-11.7841
▁Rogers	-11.7841
▁Scenes	-11.7841
▁Williams	-11.7841
▁Woodroffe	-11.7841
▁chromosome	-11.7841
▁defender	-11.7841
▁gallon	-11.7841
▁help	-11.7841
▁schooner	-11.7841
▁successful	-11.7841
Alaska	-11.7841
Aliens	-11.7841
Android	-11.7841
Benjamin	-11.7841
Blackville	-11.7841
Champlin	-11.7841
DAMIEN	-11.7841
Feliciaberg	-11.7841
Gelderland	-11.7841
Handful	-11.7841
Harold	-11.7841
Kabul	-11.7841
Kohler	-11.7841
Malta	-11.7841
Rosalind	-11.7841
drums	-11.7841
warm	-11.7841
▁634""	-11.7841
▁Elnaugh	-11.7841
▁Geometry	-11.7841
▁Geovannyton	-11.7841
▁Helena	-11.7841
▁SCIENCE	-11.7841
▁jeans	-11.7841
Alison	-11.7841
Carolina	-11.7841
Chandler	-11.7841
Chico	-11.7841
Davis	-11.7841
Monadic	-11.7841
Panama	-11.7841
wrau	-11.7841
▁Parkway	-11.7841
Murray	-11.7841
▁Exp	-11.7841
▁Package	-11.7841
TRACHSEL	-11.7841
▁636	-11.7841
▁Junction	-11.7841
▁daily	-11.7841
England	-11.7841
Tracy	-11.7841
pounds	-11.7841
▁receipt	-11.7841
▁password	-11.7841
▁relationship	-11.7841
Cutter	-11.7841
Barker	-11.7841
Bern	-11.7841
Charles	-11.7841
ensus	-11.7841
▁1928	-11.7841
raz	-11.7841
▁Biale	-11.7841
Greenland	-11.7841
2009-01-01	-11.7841
Huels	-11.7841
UAL	-11.7841
Japanese	-11.7841
▁next	-11.7841
-22""	-11.7841
▁1880	-11.7841
inches	-11.7841
▁Chang	-11.7841
PHL	-11.7841
itzer	-11.7841
▁1958	-11.7841
▁1959	-11.7841
Weber	-11.7841
iberal	-11.7841
▁1956	-11.7841
▁dependent	-11.7841
▁Young	-11.7841
Apple	-11.7841
Jolie	-11.7841
▁8.5	-11.7841
Dameon	-11.7841
▁submit	-11.7841
Hiram	-11.7841
▁mascot	-11.7841
Northridge	-11.7841
traditional	-11.7841
Marina	-11.7841
GELL	-11.7841
gement	-11.7841
Jerry	-11.7841
shopping	-11.7841
Cuba	-11.7841
Napa	-11.7841
Maryland	-11.7842
Alex	-11.7842
▁1939	-11.7842
Susan	-11.7842
Brander	-11.7842
▁42000	-11.7842
▁Album	-11.7842
▁4500000	-11.7843
▁ROOF	-11.7843
locat	-11.7843
adv	-11.7843
Kenton	-11.7843
▁1949	-11.7843
▁capital	-11.7843
undergraduate	-11.7844
achel	-11.7844
cture	-11.7844
Ludie	-11.7844
▁Kuhr	-11.7844
▁donation	-11.7844
▁""3452""	-11.7845
audie	-11.7845
▁268	-11.7845
▁93000	-11.7845
▁1955	-11.7846
ibb	-11.7846
quality	-11.7846
jing	-11.7846
alue	-11.7847
Stay	-11.7847
COVIN	-11.7847
Tok	-11.7847
▁later	-11.7848
▁1.85	-11.7849
▁seats	-11.7849
▁SHO	-11.7849
uk	-11.7849
response	-11.7849
ayer	-11.7849
▁Computing	-11.785
▁You	-11.785
▁Labs	-11.785
▁info	-11.7851
uel	-11.7852
▁arranged	-11.7852
ia	-11.7852
▁climbed	-11.7854
fast	-11.7854
▁Application	-11.7855
▁lexicographical	-11.7855
▁1930	-11.7855
surfacearea	-11.7855
Lang	-11.7856
▁components	-11.7857
Johnson	-11.7858
▁past	-11.7858
Martins	-11.7859
edispl	-11.7859
▁163	-11.7859
▁Pu	-11.786
▁pre	-11.786
Hey	-11.7861
▁possibl	-11.7861
▁definitions	-11.7862
▁affi	-11.7863
blues	-11.7863
Nameless	-11.7864
ckn	-11.7864
▁petType	-11.7866
Kids	-11.7866
▁nation	-11.7868
ontracts	-11.7868
close	-11.7869
rom	-11.7871
▁Failure	-11.7872
Roberto	-11.7873
Latin	-11.7875
-220'	-11.7876
Seeds	-11.7876
Olin	-11.7876
ole	-11.7876
inders	-11.7877
4-	-11.7882
▁Treatment	-11.7884
lanned	-11.7884
▁te	-11.7885
aut	-11.7887
▁5200	-11.7889
lie	-11.7895
▁su	-11.7895
HH	-11.7896
▁governors	-11.7897
▁93	-11.7897
1986-	-11.79
▁10018	-11.7901
OMIM	-11.7902
▁yet	-11.7902
court	-11.7903
▁""200	-11.7906
▁right	-11.7907
ite	-11.791
euro	-11.791
▁'1'	-11.7911
▁3.8	-11.7911
eral	-11.7912
▁Dinning	-11.7912
ban	-11.7915
▁Motors	-11.7917
▁fli	-11.792
bin	-11.7921
ickname	-11.7925
16'	-11.793
▁reg	-11.7931
▁voted	-11.7938
enden	-11.794
vat	-11.7941
ara	-11.7943
AI	-11.7949
54'	-11.7949
▁900000	-11.795
▁weddings	-11.7959
gust	-11.7959
cord	-11.7959
▁Account	-11.7962
love	-11.7962
rson	-11.7962
Eric	-11.7975
▁purchases	-11.7984
▁occur	-11.7991
▁""5""	-11.7996
▁255	-11.7997
ACHE	-11.7999
▁2500	-11.8
01'	-11.8001
▁108	-11.8002
MTW	-11.8002
Affi	-11.8008
slow	-11.8009
▁U	-11.8016
▁hor	-11.8017
▁94103	-11.8022
▁medications	-11.8024
▁109	-11.8027
Launch	-11.8031
▁percentages	-11.8033
▁11	-11.8033
▁Oct	-11.8036
▁flags	-11.8037
stored	-11.8039
Dele	-11.8042
▁statements	-11.8049
▁seasons	-11.8049
ttle	-11.8051
▁recorded	-11.8067
▁speeds	-11.8071
tom	-11.8072
85	-11.8076
▁Professor	-11.8085
01	-11.809
rders	-11.8092
tty	-11.8093
orizontal	-11.8094
▁pop	-11.8096
▁Ken	-11.8097
▁Massi	-11.8099
CE	-11.81
▁9000	-11.8101
HR	-11.8102
▁installation	-11.8105
▁Dec	-11.8106
▁world	-11.8118
▁120000	-11.8119
Met	-11.8123
▁graduate	-11.8124
Propert	-11.8124
▁45	-11.8139
dock	-11.8146
Item	-11.816
ng	-11.8163
Juli	-11.8165
Ray	-11.8176
Text	-11.8177
leet	-11.8186
ick	-11.8188
Templ	-11.8204
emocratic	-11.8205
▁150?	-11.8208
lex	-11.8215
▁shares	-11.8219
Frami	-11.8222
▁112	-11.8226
▁organisations	-11.8229
splay	-11.8236
Home	-11.8269
1"	-11.8275
hea	-11.831
ford	-11.8334
dar	-11.8336
rominence	-11.8344
▁followe	-11.8362
fi	-11.8366
▁1800	-11.8372
220	-11.8372
▁1004	-11.8376
▁allergi	-11.8379
▁lead	-11.8379
▁Sport	-11.8384
gis	-11.8396
▁sea	-11.8396
▁Opera	-11.8414
▁volvo	-11.8416
▁writer	-11.8421
▁HKG	-11.8423
▁CHI	-11.8423
▁Elsa	-11.8423
▁UCLA	-11.8424
▁Ebba	-11.8424
▁Manager	-11.8424
▁raised	-11.8425
▁MPEG	-11.8425
▁Utah	-11.8425
▁Duke	-11.8426
▁fame	-11.8426
▁striker	-11.8427
▁MOYER	-11.8427
▁bonus	-11.8427
▁Gruber	-11.8429
▁Mancini	-11.8429
▁Goodwin	-11.843
▁Homenick	-11.843
▁Lacrosse	-11.843
▁pressure	-11.8431
▁Bachelor	-11.8431
▁Pending	-11.8432
▁1000000	-11.8432
▁Bangladesh	-11.8432
▁council	-11.8433
▁Afghanistan	-11.8433
▁600?	-11.8448
net	-11.8467
hu	-11.8471
▁call	-11.8471
▁Stuid	-11.8471
▁Teacher	-11.8477
▁Progr	-11.849
eter	-11.8506
▁CUSTOMERS	-11.8513
Playe	-11.8522
Alton	-11.8523
▁SEC	-11.8537
3-1	-11.8554
NYY	-11.8559
▁estimate	-11.8568
▁COURSES	-11.8569
▁operating	-11.8595
▁st	-11.861
▁bill	-11.8626
51	-11.8634
▁constructorid	-11.864
AKO	-11.8644
▁'200	-11.8645
▁Am	-11.8655
leav	-11.8663
enter	-11.8674
▁bedroom	-11.8679
▁194	-11.8686
▁doctor	-11.8696
harges	-11.8744
▁commander	-11.8748
▁includ	-11.8785
▁Visit	-11.8797
▁103	-11.8798
▁East	-11.8844
wind	-11.885
▁99	-11.8867
▁110	-11.8875
aker	-11.8876
▁Sp	-11.8895
ise	-11.8902
53	-11.8903
209	-11.8906
fiat	-11.8911
RS	-11.8949
▁Bar	-11.8955
sw	-11.8972
▁re	-11.8975
▁France	-11.8981
▁Card	-11.9
▁Rob	-11.9007
▁present	-11.901
dam	-11.9022
▁pay	-11.9054
▁tours	-11.9055
tot	-11.9058
▁Latte	-11.9074
▁participates	-11.9076
▁Brazil	-11.9079
▁Ashley	-11.9082
▁functional	-11.9085
▁Start	-11.9103
ture	-11.9131
emb	-11.9138
▁Pro	-11.9147
▁Is	-11.917
▁1900	-11.9171
ani	-11.9176
ami	-11.9179
nee	-11.9206
las	-11.9215
iel	-11.9247
▁registration	-11.9257
ned	-11.9257
eme	-11.9269
▁create	-11.9271
GT	-11.9281
40000	-11.929
itl	-11.9292
▁stored	-11.9299
ommo	-11.9305
▁measure	-11.9313
Led	-11.932
▁Des	-11.9335
▁Japan	-11.9376
CP	-11.9412
▁Participant	-11.9413
▁processing	-11.9416
ry	-11.942
▁r	-11.942
▁Ra	-11.9424
ged	-11.9461
TypeI	-11.9518
ey	-11.9534
▁loss	-11.9567
ser	-11.963
Dis	-11.9683
▁)""	-11.9701
hase	-11.9717
▁deliver	-11.973
▁Hardware	-11.9751
ROY	-11.9767
600	-11.9769
Hu	-11.9774
▁105	-11.9798
oad	-11.9817
▁stand	-11.9824
pil	-11.9851
ri	-11.9872
ML	-11.9878
mmer	-12.0003
24	-12.0026
Fla	-12.003
ha	-12.0045
▁Representative	-12.0057
Out	-12.0164
0000"	-12.0173
▁un	-12.0235
▁com	-12.0285
wal	-12.0287
quar	-12.031
airport	-12.0312
▁vi	-12.0331
▁APG	-12.0352
ffective	-12.0368
Eli	-12.0427
Data	-12.0434
urg	-12.0451
ways	-12.0462
aba	-12.047
affected	-12.0475
AIRPORT	-12.0522
mal	-12.0544
work	-12.0544
5?	-12.055
Sponsor	-12.0551
mb	-12.0554
Black	-12.0555
▁sy	-12.0556
component	-12.0581
injury	-12.0586
Wisconsin	-12.059
Visa	-12.0592
USPS	-12.0596
home	-12.0598
continent	-12.0602
▁creat	-12.0602
cul	-12.0614
Kentucky	-12.0617
▁chain	-12.0618
Cylinders	-12.0622
▁""6	-12.0624
donator	-12.0625
born	-12.0628
Drama	-12.063
you	-12.0634
rpor	-12.0635
Class	-12.0641
local	-12.0644
Jose	-12.0658
103	-12.0694
3000	-12.0696
fied	-12.0712
Tri	-12.073
ax	-12.073
acting	-12.0737
omp	-12.0808
win	-12.0849
DENT	-12.0919
omputer	-12.0919
48	-12.0922
900"	-12.0951
NA	-12.0951
ot	-12.0998
▁Phone	-12.1005
▁move	-12.1049
oach	-12.1056
▁Co	-12.1062
ust	-12.1075
ties	-12.1083
equired	-12.1123
pr	-12.1132
▁procedure	-12.114
▁tutor	-12.114
▁reservation	-12.1141
▁platform	-12.1141
▁provide	-12.1141
▁Asset	-12.1142
blue	-12.1144
▁appro	-12.1148
Transaction	-12.115
pplication	-12.1154
10?	-12.116
▁perform	-12.1166
▁affect	-12.1167
▁propert	-12.1167
▁earlie	-12.1169
omponent	-12.117
omina	-12.1173
▁month	-12.1174
-04-	-12.1174
Business	-12.1174
Canadian	-12.1174
Caribbean	-12.1174
Completed	-12.1174
Dollar	-12.1174
Electoral	-12.1174
Mailed	-12.1174
Published	-12.1174
acquired	-12.1174
incorporated	-12.1174
uccess	-12.1174
▁August	-12.1174
▁Cobham	-12.1174
▁LITERACY	-12.1174
▁business	-12.1174
▁certifi	-12.1174
▁experience	-12.1174
▁regular	-12.1174
▁wrote	-12.1174
2002-06-21	-12.1174
▁capacities	-12.1174
▁finish	-12.1174
Snatch	-12.1174
europe	-12.1174
france	-12.1174
Debit	-12.1174
▁replacement	-12.1174
▁injuries	-12.1174
▁Operating	-12.1174
Killed	-12.1174
ifespan	-12.1175
▁accept	-12.1175
xim	-12.1175
▁Weekly	-12.1175
▁chargeable	-12.1176
▁currently	-12.1176
▁practicing	-12.1176
nformation	-12.1176
Midfielder	-12.1178
Forward	-12.1178
▁fates	-12.1181
▁taxes	-12.1183
▁patent	-12.1184
Factories	-12.1184
▁suffer	-12.1185
opies	-12.1186
▁span	-12.1202
▁moves	-12.1207
▁attending	-12.1215
curred	-12.1216
Ranking	-12.1217
ntly	-12.1219
▁onl	-12.1221
aller	-12.1222
▁difference	-12.1223
▁awarded	-12.1224
Daan	-12.1226
18'	-12.1231
ered	-12.1236
hird	-12.1239
▁goods	-12.1243
▁fix	-12.1251
▁tri	-12.1251
arrears	-12.1263
▁""33	-12.1263
ski	-12.1283
ish	-12.1283
fines	-12.1285
Win	-12.1288
▁Par	-12.1295
▁register	-12.1304
put	-12.1311
20'	-12.1313
▁partition	-12.1317
pons	-12.1317
▁incidents	-12.1321
▁Pixel	-12.1322
▁evaluations	-12.1332
second	-12.1336
▁handed	-12.1351
actories	-12.1355
▁places	-12.1355
8-06-26?	-12.1359
▁missions	-12.1362
cm	-12.137
▁tot	-12.1381
▁j	-12.1387
Lab	-12.1389
▁ran	-12.1399
pent	-12.1401
▁tickets	-12.1416
anny	-12.1419
AD	-12.1439
side	-12.1443
billions	-12.1453
ork	-12.1458
ince	-12.1534
▁1986-11-13	-12.1544
▁South	-12.1546
▁network	-12.1552
▁pixel	-12.1553
▁cats	-12.1553
2008"	-12.156
▁Domestic	-12.1566
▁workshops	-12.1585
Ryl	-12.1596
ape	-12.1598
▁Man	-12.1602
▁ratingDate	-12.1643
300	-12.1647
os	-12.168
ment	-12.1687
▁acting	-12.1726
itional	-12.1751
url	-12.1752
▁Stud	-12.1766
▁USPS	-12.1787
ure	-12.1789
▁Visa	-12.1791
▁Wisconsin	-12.1794
orth	-12.1799
▁man	-12.181
Add	-12.1811
di	-12.1823
orea	-12.1828
▁Cu	-12.1834
datetime	-12.1871
cult	-12.1899
▁Jun	-12.1911
▁Comp	-12.1926
▁IL	-12.1971
▁killed	-12.2026
▁Italy	-12.2027
▁Florida	-12.2032
▁ResType	-12.2037
▁Ball	-12.2041
▁Jazz	-12.2048
▁effect	-12.205
usa	-12.2055
▁officers	-12.2071
nomi	-12.2076
68	-12.2091
▁america	-12.2095
▁Gra	-12.2103
peti	-12.2103
ors	-12.214
▁areas	-12.2141
Sh	-12.2176
▁56	-12.221
▁Brown	-12.2264
▁Kim	-12.2265
▁Bosco	-12.2268
▁Denmark	-12.2268
▁Colorado	-12.2268
▁Christop	-12.2268
▁Beijing	-12.2269
▁4560596484842	-12.2269
▁PPT	-12.2278
62	-12.2306
ica	-12.2316
▁ma	-12.2317
late	-12.2321
▁gameid	-12.2329
ne	-12.233
0000	-12.2332
edia	-12.2349
ub	-12.2366
years	-12.2366
ifi	-12.2418
Paid	-12.2436
▁193	-12.2437
▁organiz	-12.2439
Th	-12.2503
▁Residen	-12.2518
▁lea	-12.2528
▁try	-12.2529
Wi	-12.254
structures	-12.2548
Route	-12.2553
BO	-12.2559
rofits	-12.2686
ss	-12.2699
▁num	-12.2728
▁Russia	-12.2737
▁formed	-12.2758
▁Cle	-12.2779
fir	-12.2793
ngl	-12.2795
▁tra	-12.2858
ock	-12.2869
col	-12.288
▁PROF	-12.2969
esponse	-12.2973
MA	-12.2991
Marr	-12.2993
Lisa	-12.2993
bou	-12.2996
▁win	-12.3058
▁contract	-12.3107
8"	-12.3119
▁Direct	-12.314
Di	-12.3146
▁Master	-12.3171
▁AHD	-12.3194
▁wor	-12.32
▁comp	-12.3216
cop	-12.3218
▁inhibitor	-12.3224
▁NYC	-12.3224
Ko	-12.3238
esident	-12.3256
54	-12.3265
ord	-12.3267
eries	-12.3271
egistration	-12.3277
Fog	-12.3282
Timmothy	-12.3319
prin	-12.3329
fficial	-12.3345
800"	-12.338
6?	-12.3387
tain	-12.3498
ar	-12.3516
not	-12.3544
▁Count	-12.3545
41	-12.3604
LI	-12.3611
oser	-12.3626
▁co	-12.3627
ti	-12.3698
ic	-12.3762
employees	-12.3789
08-2	-12.3791
▁province	-12.3811
▁land	-12.3812
daman	-12.3818
ers	-12.3838
Form	-12.3841
▁advis	-12.3863
Demo	-12.3936
imed	-12.3949
▁Artwork	-12.3971
min	-12.4036
▁Ge	-12.4054
Prof	-12.4153
▁cer	-12.4173
EM	-12.4196
lume	-12.4197
IM	-12.4217
▁memor	-12.4255
esidence	-12.4262
ratio	-12.4327
Take	-12.4346
here	-12.4356
▁Museum	-12.4383
▁option	-12.4393
ieve	-12.4395
ap	-12.4418
STO	-12.4423
▁so	-12.4456
na	-12.4489
OF	-12.452
Sho	-12.4528
ises	-12.454
acking	-12.4593
▁summary	-12.4642
tible	-12.4651
new	-12.4742
1121"	-12.4775
▁becom	-12.4805
Documents	-12.4809
8	-12.4809
DRE	-12.4812
▁col	-12.4834
▁dormid	-12.4837
▁ba	-12.4841
ji	-12.4864
SI	-12.488
Descript	-12.4898
rganizer	-12.4958
cept	-12.4982
▁coupon	-12.4985
tti	-12.4998
Scientist	-12.5004
have	-12.5042
▁write	-12.5044
00""	-12.5048
10	-12.509
checking	-12.5125
CD	-12.5143
Person	-12.5149
Option	-12.5199
her	-12.525
venue	-12.528
ice	-12.5283
Nationality	-12.531
Hom	-12.5332
ritt	-12.5343
band	-12.5365
Project	-12.5368
Ke	-12.538
2015	-12.5382
lines	-12.539
▁serv	-12.5391
estimate	-12.5432
▁102	-12.5437
iology	-12.5446
lly	-12.5453
times	-12.5457
hometown	-12.5459
place	-12.5465
received	-12.5482
once	-12.5482
publication	-12.5484
affiliation	-12.5493
ORG	-12.5502
registered	-12.5505
Steve	-12.552
Chris	-12.5528
Thesisin	-12.5533
Aerosmith	-12.5533
Argentina	-12.5533
2000-01-01	-12.5533
Feest	-12.5534
Lockmanfurt	-12.5534
Damianfort	-12.5534
morningside	-12.5534
Waterbury	-12.5534
Switzerland	-12.5535
Abilene	-12.5535
Albania	-12.5535
Almeida	-12.5535
Goodrich	-12.5535
Taiwan	-12.5535
Virginia	-12.5535
temporary	-12.5536
January	-12.5536
Payam	-12.5536
keyboard	-12.5536
Beatrix	-12.5536
BROMLEY	-12.5536
Angola	-12.5536
Alyson	-12.5536
Keeling	-12.5536
Peeters	-12.5536
Sandwich	-12.5536
Barton	-12.5537
burden	-12.5537
Berge	-12.5537
Calgary	-12.5537
Chennai	-12.5537
Clemson	-12.5537
GORDON	-12.5537
Goroka	-12.5537
Edmonton	-12.5537
Shieber	-12.5537
Dublin	-12.5537
Carol	-12.5537
Prague	-12.5537
Uganda	-12.5538
Leonie	-12.5538
Prince	-12.5538
Schu	-12.5539
Swift	-12.554
JEROME	-12.554
KIRK	-12.5541
Andy	-12.5541
LEIA	-12.5545
HBS	-12.5547
Jun	-12.555
graduate	-12.5551
Auto	-12.5555
Denomination	-12.5557
Gro	-12.5559
commission	-12.5559
RAY	-12.556
2192	-12.5562
Colle	-12.5563
Treasur	-12.5565
definition	-12.5566
activities	-12.5567
Head	-12.557
200	-12.5576
GovernmentForm	-12.5576
premise	-12.5583
pixel	-12.5584
network	-12.5585
Invoice	-12.5589
Director	-12.5591
meters	-12.5593
Domestic	-12.5594
South	-12.5594
undergo	-12.5595
1986-11-13	-12.5596
installation	-12.5597
Assets	-12.5599
invested	-12.5603
Georgia	-12.5605
permanent	-12.5605
prominence	-12.5606
consider	-12.5606
Detention	-12.5606
Anthony	-12.5607
label	-12.5608
Issue	-12.5608
Builder	-12.5609
FDA	-12.561
unsure	-12.5611
Lewis	-12.5611
LOTS	-12.5611
Elimination	-12.5611
Venue	-12.5611
computer	-12.5611
Massi	-12.5611
Cou	-12.5612
injured	-12.5613
liked	-12.5613
images	-12.5613
Bar	-12.5614
Info	-12.5623
All	-12.5624
world	-12.5625
Germany	-12.5625
180	-12.5638
BUS	-12.5639
joined	-12.5639
beds	-12.5642
Un	-12.5644
Dec	-12.5649
Third	-12.5649
Robert	-12.565
ratingDate	-12.5656
taken	-12.5662
ult	-12.5673
pop	-12.5683
TAMI	-12.5686
Account	-12.5686
loans	-12.5689
rk	-12.5692
lice	-12.5693
2018	-12.5699
index	-12.5711
▁e	-12.5712
RV	-12.5779
PG	-12.5783
ny	-12.5783
ward	-12.5796
Gen	-12.5806
nding	-12.5836
uri	-12.5875
omestic	-12.5876
162	-12.5879
ember	-12.5885
io	-12.5897
olin	-12.5922
Employees	-12.5932
160	-12.5937
▁trans	-12.594
▁commande	-12.595
pages	-12.5958
cer	-12.5966
ggs	-12.5994
Vi	-12.6009
ritten	-12.6018
light	-12.6025
li	-12.6045
ized	-12.6055
▁'198	-12.6058
erritory	-12.6062
lery	-12.6067
6-01-01	-12.6067
▁collecti	-12.6071
▁APPELLATION	-12.6082
warded	-12.6123
▁destroy	-12.613
▁complain	-12.6131
tructure	-12.6137
stan	-12.6138
▁poss	-12.614
▁millisecond	-12.6142
Content	-12.6146
vailable	-12.6149
-05'	-12.6153
▁studi	-12.6157
PAR	-12.6158
▁America	-12.616
▁'201	-12.616
ominated	-12.6161
Ha	-12.6163
header	-12.6164
3452"	-12.6165
▁salar	-12.6165
ieutenant	-12.6165
Bank	-12.6165
▁Kuh	-12.6166
▁happen	-12.6167
ppose	-12.6168
urse	-12.6169
signed	-12.617
onsider	-12.617
andidate	-12.6171
▁4500	-12.6171
ridge	-12.6171
lothes	-12.6172
▁Perform	-12.6173
Bal	-12.6173
ascot	-12.6173
ispanic	-12.6173
▁appel	-12.6173
eague	-12.6173
2009-0	-12.6173
59	-12.6174
Aberd	-12.6174
achine	-12.6174
▁Euro	-12.6174
-09-0	-12.6174
-06-	-12.6174
Digital	-12.6174
▁High	-12.6174
▁2010-01-01	-12.6174
▁expectancies	-12.6174
▁occupancy	-12.6174
▁period	-12.6174
▁potential	-12.6174
Chiltern	-12.6174
Glasgow	-12.6174
Gottlieb	-12.6174
IHSAA	-12.6174
Moulin	-12.6174
Safari	-12.6174
Schmidt	-12.6174
activator	-12.6174
dribbling	-12.6174
enefits	-12.6174
equity	-12.6174
interchange	-12.6174
superstar	-12.6174
▁""918""	-12.6174
▁'225'	-12.6174
▁3452?	-12.6174
▁Church	-12.6174
▁February	-12.6174
▁Junior	-12.6174
▁SOURCE	-12.6174
▁September	-12.6174
▁expect	-12.6174
▁focal	-12.6174
▁supply	-12.6174
disposed	-12.6174
Amersham	-12.6174
Harford	-12.6174
Houston	-12.6174
aperture	-12.6174
▁heavie	-12.6174
▁corres	-12.6174
electoral	-12.6174
▁choose	-12.6174
treet	-12.6174
▁1.84	-12.6174
Foot	-12.6174
▁combinations	-12.6174
Triton	-12.6174
▁independence	-12.6174
witz	-12.6174
FedEx	-12.6174
▁1840	-12.6174
▁cancelled	-12.6174
▁cancel	-12.6174
▁parent	-12.6174
▁league	-12.6174
▁hispanic	-12.6175
laine	-12.6175
Intern	-12.6175
intern	-12.6175
▁perfo	-12.6175
▁clothes	-12.6177
erfo	-12.6177
rigin	-12.6177
▁""1121""	-12.6177
ective	-12.6178
bject	-12.6178
Brand	-12.6178
▁empty	-12.6179
shareholding	-12.6181
mpus	-12.6181
▁study	-12.6181
▁something	-12.6181
Miss	-12.6182
Gold	-12.6182
ersion	-12.6184
Star	-12.6186
lations	-12.6187
Koby	-12.6187
AirCon	-12.6188
▁Sec	-12.619
za	-12.6191
etailing	-12.6191
-23	-12.6191
ueen	-12.6192
▁friendly	-12.6193
▁assi	-12.6195
05'	-12.6195
-11-	-12.6196
Birt	-12.6198
▁Cla	-12.6205
placement	-12.621
▁exceed	-12.6211
yla	-12.6219
ball	-12.622
bow	-12.622
lanta	-12.6221
▁Sep	-12.6223
▁latin	-12.6223
▁4000000	-12.6227
loor	-12.6227
verpayments	-12.6231
▁buses	-12.6241
▁338	-12.6242
ATA	-12.6242
essed	-12.6243
ago	-12.6245
▁Burns	-12.6254
▁contracts	-12.6256
sect	-12.6262
stant	-12.6264
▁planes	-12.6268
dwin	-12.6274
Thi	-12.6276
▁Mot	-12.6277
ik	-12.6277
iz	-12.6281
6-01-01?	-12.6282
▁Sports	-12.6285
▁territory	-12.6287
otel	-12.6288
illage	-12.629
▁'19	-12.629
Sprin	-12.6294
pouse	-12.6301
▁away	-12.6304
▁'1')	-12.6306
mailed	-12.6308
eck	-12.6309
▁deparment	-12.6316
ual	-12.6316
▁pair	-12.6322
▁kills	-12.6322
▁issues	-12.6323
▁died	-12.6328
fin	-12.6332
▁soy	-12.6334
hey	-12.6345
▁64	-12.6348
▁Case	-12.6352
▁completed	-12.6354
▁lose	-12.6355
uses	-12.6355
Car	-12.6358
▁Comput	-12.6382
▁po	-12.6386
▁seri	-12.6389
▁egg	-12.639
pia	-12.6402
▁actresses	-12.6432
▁600.	-12.6437
▁resp	-12.6438
mber	-12.6444
loy	-12.6449
irl	-12.6452
▁restaurants	-12.6461
▁""600""?	-12.6462
▁Sh	-12.6464
else	-12.6467
ving	-12.6471
▁attends	-12.6481
▁vehicles	-12.6493
▁batter	-12.652
▁Atla	-12.6522
▁way	-12.6533
els	-12.6541
Nan	-12.6543
surance	-12.6569
ham	-12.6574
▁install	-12.6575
edu	-12.6594
33	-12.6598
000"	-12.66
east	-12.6611
▁Numbers	-12.6622
ith	-12.6623
ant	-12.6627
ained	-12.6628
▁mo	-12.6645
▁Robert	-12.6649
▁bat	-12.6658
ave	-12.666
▁315	-12.6669
AL	-12.6681
▁RV	-12.6687
▁supports	-12.6688
▁bands	-12.6702
▁ar	-12.6704
▁Market	-12.6719
0'	-12.6723
▁Invoice	-12.6758
TE	-12.6768
▁definition	-12.678
▁ad	-12.6789
▁CL	-12.6793
▁manufacture	-12.6801
▁Carol	-12.6826
Cut	-12.6829
▁2192	-12.6831
▁Auto	-12.6833
▁RAY	-12.6836
▁Head	-12.6836
▁postseasons	-12.6836
▁LEIA	-12.6843
▁Steve	-12.6843
▁index	-12.6846
▁KIRK	-12.6848
▁Swift	-12.6849
▁Leonie	-12.6852
▁Prince	-12.6852
▁Uganda	-12.6852
▁Dublin	-12.6852
▁Prague	-12.6852
▁Shieber	-12.6852
▁Edmonton	-12.6852
▁Goroka	-12.6853
▁GORDON	-12.6853
▁Clemson	-12.6853
▁Calgary	-12.6853
▁Chennai	-12.6853
▁burden	-12.6853
▁Berge	-12.6853
▁Sandwich	-12.6853
▁Keeling	-12.6853
▁Peeters	-12.6853
▁Alyson	-12.6854
▁Angola	-12.6854
▁HBS	-12.6854
▁Barton	-12.6854
▁Beatrix	-12.6854
▁Payam	-12.6854
▁keyboard	-12.6854
▁January	-12.6854
▁Virginia	-12.6855
▁BROMLEY	-12.6855
▁Taiwan	-12.6855
▁Goodrich	-12.6855
▁Albania	-12.6855
▁Abilene	-12.6855
▁Almeida	-12.6855
▁Switzerland	-12.6855
▁Waterbury	-12.6856
▁Damianfort	-12.6856
▁Lockmanfurt	-12.6856
▁morningside	-12.6856
▁2000-01-01	-12.6857
▁Argentina	-12.6857
▁Aerosmith	-12.6857
▁Thesisin	-12.6857
▁temporary	-12.6857
▁Feest	-12.6861
▁Chris	-12.6862
▁Andy	-12.687
▁seatings	-12.6873
▁Cre	-12.6876
lor	-12.6878
ze	-12.6894
▁JEROME	-12.6909
Cy	-12.6911
Jan	-12.6942
cco	-12.6944
▁meters	-12.6945
ATO	-12.6954
▁Wind	-12.6954
ue	-12.6961
Cre	-12.6975
j	-12.6978
pening	-12.6989
reated	-12.7002
▁mini	-12.7003
Assi	-12.7029
abel	-12.704
Case	-12.7057
▁levels	-12.7064
ITE	-12.7069
CO	-12.7082
▁inter	-12.7092
▁162	-12.7143
atta	-12.7147
▁ATO	-12.7164
▁component	-12.7189
Ass	-12.719
eeds	-12.72
Len	-12.7212
▁PIT	-12.7227
▁winer	-12.723
▁busi	-12.7259
em	-12.7261
PP	-12.7266
▁he	-12.7268
▁Sponsor	-12.7281
▁TAMI	-12.7303
yto	-12.7308
▁BUS	-12.7324
ostal	-12.7324
▁PG	-12.7346
▁PP	-12.7373
▁je	-12.7404
go	-12.7424
holding	-12.745
cientists	-12.7489
oy	-12.7501
15"	-12.7532
▁Black	-12.754
Tra	-12.7574
Fa	-12.7582
▁le	-12.7585
HAR	-12.7589
gen	-12.7594
Oct	-12.7599
▁ORG	-12.7618
▁German	-12.7634
mm	-12.7644
escriptions	-12.7649
▁Mary	-12.7651
sin	-12.767
▁Feb	-12.7681
▁begin	-12.7685
Ken	-12.7723
Bra	-12.773
▁Mortgages	-12.7734
ome	-12.7735
21""	-12.778
ater	-12.7784
ndex	-12.7795
ost	-12.7859
uss	-12.7907
▁gradepoint	-12.7942
PIT	-12.798
MERS	-12.8004
rn	-12.8042
01-01""	-12.8056
▁ph	-12.8069
displ	-12.8093
ORDER	-12.8144
▁audi	-12.8147
rch	-12.8229
ces	-12.8251
ffice	-12.8264
ASY	-12.8285
13	-12.8315
Cate	-12.8331
AP	-12.8356
▁24	-12.8357
ble	-12.8363
UR	-12.8371
▁road	-12.8499
▁CA	-12.8523
sting	-12.8529
ver	-12.8545
▁mail	-12.8552
▁si	-12.8555
eve	-12.8571
3""	-12.8579
▁us	-12.8585
▁Cash	-12.8607
ining	-12.8634
20	-12.8648
▁Americano	-12.8663
embership	-12.8663
onnage	-12.8675
▁Ward	-12.8676
vered	-12.8682
May	-12.8686
6"	-12.8688
▁Address	-12.8694
rea	-12.8709
ots	-12.8715
lab	-12.8771
Pack	-12.8846
▁shipp	-12.8871
ron	-12.8943
essi	-12.8954
tage	-12.8961
▁Dis	-12.9015
hand	-12.9027
▁pri	-12.9038
ama	-12.9049
average	-12.9061
▁Lu	-12.9073
▁''	-12.9073
▁stan	-12.9102
dose	-12.9108
egat	-12.9136
prefer	-12.9161
Am	-12.9163
▁dra	-12.9217
-26	-12.9274
▁accom	-12.9312
▁ai	-12.9449
rmat	-12.9485
▁St	-12.9496
▁approved	-12.95
Den	-12.9516
34"	-12.9681
▁PU	-12.9716
asks	-12.9756
09-	-12.9868
ld	-12.9898
ENCE	-12.9961
▁li	-12.9976
▁LE	-12.9978
▁fin	-13.0019
▁dose	-13.01
immothy	-13.0136
gistration	-13.0198
18"	-13.033
▁""600"".	-13.035
Tou	-13.0356
▁collect	-13.0365
▁compo	-13.037
▁188	-13.0418
▁Gen	-13.0435
Mor	-13.044
ence	-13.0496
▁Option	-13.0497
▁injure	-13.0566
RES	-13.0682
▁Ne	-13.0718
2003	-13.0784
ob	-13.0801
sponse	-13.0811
▁nor	-13.0832
▁Mar	-13.0965
liminated	-13.101
300"	-13.1017
▁Sho	-13.1047
sati	-13.1061
Al	-13.1086
ian	-13.1166
whi	-13.1229
Dr	-13.1231
vel	-13.1286
▁headers	-13.1341
escribe	-13.136
▁Republic	-13.15
GR	-13.1535
▁dec	-13.1601
_1	-13.1645
▁Ry	-13.1649
ei	-13.1651
▁tak	-13.1656
tly	-13.1696
▁note	-13.1703
elease	-13.1725
ll	-13.1775
Pa	-13.1777
ung	-13.1789
ett	-13.1844
ast	-13.1865
▁102.	-13.1904
45	-13.1974
▁Vote	-13.2
hare	-13.2004
35	-13.2005
cells	-13.2055
▁STUDENTS	-13.2068
ret	-13.2134
hoto	-13.2175
rest	-13.2288
ls	-13.2382
lica	-13.2484
orking	-13.2521
ization	-13.2548
BU	-13.2586
▁carr	-13.2617
Bri	-13.2619
2?	-13.2663
eg	-13.2689
▁hos	-13.2825
eland	-13.2876
aunched	-13.2887
▁att	-13.2891
▁Tai	-13.293
ric	-13.2948
▁CO	-13.2954
86	-13.2984
STI	-13.311
ames	-13.313
use	-13.3275
▁outs	-13.3349
▁ST	-13.3409
▁ra	-13.3477
▁West	-13.3544
arri	-13.3595
Wha	-13.3691
ction	-13.377
Tab	-13.3777
mall	-13.3819
get	-13.3883
AF	-13.3949
mes	-13.4012
reas	-13.4213
stid	-13.4232
rent	-13.4325
criptions	-13.4384
▁treat	-13.4406
llow	-13.4458
▁Char	-13.4521
▁driv	-13.4615
ct	-13.4664
omer	-13.4671
▁manufactur	-13.4699
who	-13.4741
matches	-13.4769
ured	-13.4771
yle	-13.4774
te	-13.4789
ecoration	-13.4865
lect	-13.4872
ty	-13.4894
▁Leve	-13.4902
▁21	-13.4932
ferred	-13.4951
Apartment	-13.5002
ki	-13.5011
▁organize	-13.5051
▁""2""	-13.5056
flight	-13.5095
DESC	-13.5357
group	-13.5359
ountries	-13.5369
actress	-13.5379
▁climbin	-13.5384
▁Wal	-13.539
Part	-13.5449
rand	-13.5473
nominated	-13.5501
availab	-13.551
percentage	-13.5526
protein	-13.5536
▁cou	-13.5539
LEVEL	-13.5546
actresses	-13.5555
participant	-13.5561
Heathrow	-13.5567
bulgarian	-13.5574
Pennsylvania	-13.5577
Pixel	-13.5578
birthday	-13.5586
premises	-13.5595
partition	-13.5601
tonnage	-13.5614
▁En	-13.5629
handed	-13.5634
Skills	-13.5645
draft	-13.5676
▁cause	-13.571
Char	-13.5735
ctories	-13.5741
▁Luca	-13.5745
int	-13.5754
%	-13.577
rrears	-13.5811
lots	-13.5811
Pla	-13.5829
▁Cha	-13.5868
recorded	-13.5871
ops	-13.5872
▁mi	-13.5876
de	-13.5896
planes	-13.5937
ependent	-13.5944
fix	-13.595
west	-13.5959
ols	-13.5959
ore	-13.5972
ically	-13.5983
▁produ	-13.5984
▁scor	-13.5991
ailure	-13.5992
▁incur	-13.5999
asia	-13.6042
▁diff	-13.6048
vi	-13.6064
▁character	-13.6074
▁lexicographic	-13.6091
Tour	-13.6101
▁cartoo	-13.6119
▁goal	-13.6123
azz	-13.6125
rained	-13.6136
right	-13.6136
▁measu	-13.6137
▁associate	-13.6139
▁Mortgage	-13.6139
▁cylinder	-13.614
▁involve	-13.614
Herb	-13.6141
▁recor	-13.6143
▁fu	-13.6154
338	-13.6155
rrival	-13.6158
▁headquarte	-13.6158
pielberg	-13.616
idfielder	-13.6161
▁publish	-13.6162
▁fine	-13.6164
▁practic	-13.6164
▁temporar	-13.6166
▁compute	-13.6167
tribute	-13.6167
egister	-13.6168
▁popu	-13.6169
▁phon	-13.6171
▁conferr	-13.6172
▁brows	-13.6172
ouncil	-13.6172
▁visib	-13.6172
▁function	-13.6173
▁voca	-13.6173
▁speci	-13.6173
▁progr	-13.6173
▁recei	-13.6173
▁prominen	-13.6174
▁represent	-13.6174
▁citizens	-13.6174
blished	-13.6174
▁Louis	-13.6174
▁alpha	-13.6174
▁succe	-13.6174
ketball	-13.6174
respond	-13.6174
lags	-13.6174
▁combin	-13.6174
▁Ital	-13.6175
▁Carri	-13.6177
▁availabl	-13.6177
▁replace	-13.6177
▁reside	-13.6178
▁nurs	-13.6178
▁pass	-13.6178
cines	-13.6179
camp	-13.6181
▁Syst	-13.6181
▁mark	-13.6181
ject	-13.6183
Role	-13.6185
view	-13.6185
▁semes	-13.6185
etical	-13.6188
rganizations	-13.619
▁relation	-13.6193
▁lang	-13.6193
▁ascend	-13.6193
▁follower	-13.6194
▁sale	-13.6195
▁contin	-13.6196
nclude	-13.6196
cturers	-13.6196
Note	-13.6197
▁Inter	-13.62
▁summar	-13.6205
niture	-13.6206
▁humi	-13.6214
lity	-13.6214
▁Cob	-13.6215
erated	-13.6217
▁char	-13.6218
rench	-13.6236
▁descen	-13.6244
crafts	-13.6246
even	-13.625
▁big	-13.6261
▁pric	-13.6266
ects	-13.6275
150	-13.6307
iana	-13.6313
▁Mort	-13.6315
▁se	-13.6318
bit	-13.6319
St	-13.6324
▁far	-13.6325
nance	-13.6333
▁fur	-13.6334
tect	-13.6346
▁accoun	-13.6358
ergi	-13.6395
▁custo	-13.6404
▁independen	-13.6405
▁regist	-13.6413
ead	-13.6436
sidence	-13.6448
lian	-13.6451
oice	-13.6456
ports	-13.6459
▁fate	-13.6463
ender	-13.6471
mit	-13.6509
120	-13.653
▁Pr	-13.6533
▁fo	-13.6548
give	-13.6553
ac	-13.6568
▁Pla	-13.6574
stries	-13.6575
60"	-13.6593
bles	-13.6593
udgeted	-13.6626
▁shi	-13.6633
▁sell	-13.6662
anding	-13.6687
ities	-13.6689
ems	-13.6723
astin	-13.6724
▁The	-13.6761
pre	-13.6764
wers	-13.6789
ips	-13.6803
ci	-13.6823
pita	-13.6824
im	-13.6845
llin	-13.6861
mestic	-13.6888
un	-13.6896
▁capa	-13.6898
▁arch	-13.6905
▁Onl	-13.6975
cum	-13.6993
ICE	-13.6996
▁actress	-13.7014
▁na	-13.7068
ains	-13.7071
ste	-13.7094
ues	-13.7129
▁sav	-13.7199
▁seat	-13.7206
▁CON	-13.7213
▁dat	-13.7249
0""	-13.7256
▁De	-13.7265
▁username	-13.7314
▁came	-13.733
CHA	-13.7356
ection	-13.7359
Ty	-13.7363
ende	-13.737
▁employe	-13.7397
▁stays	-13.7402
mo	-13.7436
▁earl	-13.748
trie	-13.7505
▁Lab	-13.7569
struments	-13.7625
ous	-13.7673
▁gen	-13.7709
▁cha	-13.7714
programs	-13.7724
▁Clea	-13.7759
INT	-13.785
ns	-13.7873
ram	-13.7877
▁Cl	-13.7943
▁Colle	-13.7977
Are	-13.7986
esta	-13.805
dates	-13.8079
▁gr	-13.8161
iso	-13.82
tion	-13.8243
▁pro	-13.8269
ai	-13.8299
▁y	-13.8351
121"	-13.8357
▁mil	-13.8404
allow	-13.8414
▁N	-13.8452
reed	-13.8547
ulati	-13.8704
ings	-13.8723
ader	-13.877
▁31	-13.8851
▁construct	-13.8921
tern	-13.8943
5'	-13.9021
Cap	-13.904
▁set	-13.9086
ated	-13.9189
▁AIRPORT	-13.9248
ume	-13.9251
starts	-13.9257
gets	-13.9298
▁cons	-13.9298
dd	-13.9305
rovide	-13.9333
▁Week	-13.9342
Ta	-13.9354
▁196	-13.9399
bean	-13.9411
commo	-13.9453
uthors	-13.9457
▁exc	-13.9487
▁authoriz	-13.9577
rid	-13.9594
▁registe	-13.9623
Lo	-13.9741
EA	-13.9836
▁ac	-13.9865
ro	-13.9879
▁Tur	-13.9903
▁Data	-13.9963
Fl	-14.002
▁FL	-14.0047
odric	-14.0094
1""?	-14.0209
▁VI	-14.0213
epartmentID	-14.0247
ain	-14.0291
ced	-14.0302
ery	-14.0354
Shipp	-14.0547
eign	-14.0663
pit	-14.0725
RI	-14.0912
mbu	-14.1043
athr	-14.107
gd	-14.1254
lio	-14.1344
AY	-14.1488
▁stre	-14.1533
▁rep	-14.1581
▁late	-14.1677
▁ho	-14.1683
lways	-14.1713
▁z	-14.1804
▁""2010-0	-14.1872
anto	-14.1952
Pe	-14.2009
▁eq	-14.2031
SSES	-14.2121
ilo	-14.2238
sian	-14.2275
▁fre	-14.2601
De	-14.2737
DA	-14.2795
mmon	-14.2805
ew	-14.2838
WY	-14.295
ories	-14.3009
mer	-14.3094
Pho	-14.3147
ck	-14.3286
▁am	-14.3322
TEM	-14.3325
mum	-14.3381
nce	-14.3393
ge	-14.3567
gr	-14.3644
▁mem	-14.3772
lic	-14.3788
arriv	-14.3801
▁Ma	-14.3979
▁thing	-14.4177
ED	-14.4237
ally	-14.434
▁""2	-14.4368
hn	-14.4377
▁minu	-14.4387
du	-14.4443
▁ap	-14.4719
ransactions	-14.4792
▁An	-14.4821
▁hi	-14.4996
▁Le	-14.5004
ils	-14.5045
BE	-14.5298
employ	-14.5301
ied	-14.535
ium	-14.5418
Comput	-14.5501
ting	-14.5517
nts	-14.5585
▁accou	-14.5603
irs	-14.5615
ner	-14.5649
▁foot	-14.5775
most	-14.5848
ept	-14.5948
olv	-14.5973
600"	-14.6014
>	-14.6071
▁Pri	-14.6085
eig	-14.6096
0.	-14.6103
serv	-14.6124
▁inn	-14.6147
ire	-14.615
Cle	-14.6152
▁sa	-14.6467
▁cl	-14.6498
Si	-14.6555
▁ga	-14.6673
Sch	-14.6816
ptions	-14.6884
▁ent	-14.6907
Amo	-14.7004
rg	-14.7032
ag	-14.7039
epartments	-14.7215
Ba	-14.7374
▁injur	-14.7444
ird	-14.749
Coun	-14.7741
sit	-14.7814
rig	-14.7835
▁PR	-14.7841
ype	-14.8137
1?	-14.8289
pro	-14.856
has	-14.8609
ten	-14.8796
▁counts	-14.8834
students	-14.8865
ault	-14.8947
ncert	-14.8964
Mov	-14.8966
gy	-14.8984
▁Ad	-14.9016
▁pres	-14.9077
og	-14.9239
cipa	-14.9949
<	-15.0024
q	-15.0025
9	-15.0026
